{
  "version": "1.0",
  "truncation": null,
  "padding": {
    "strategy": "BatchLongest",
    "direction": "Right",
    "pad_to_multiple_of": null,
    "pad_id": 0,
    "pad_type_id": 0,
    "pad_token": "[PAD]"
  },
  "added_tokens": [
    {
      "id": 0,
      "special": true,
      "content": "[UNK]",
      "single_word": false,
      "lstrip": false,
      "rstrip": false,
      "normalized": false
    },
    {
      "id": 1,
      "special": true,
      "content": "[PAD]",
      "single_word": false,
      "lstrip": false,
      "rstrip": false,
      "normalized": false
    },
    {
      "id": 2,
      "special": true,
      "content": "[CLS]",
      "single_word": false,
      "lstrip": false,
      "rstrip": false,
      "normalized": false
    },
    {
      "id": 3,
      "special": true,
      "content": "[SEP]",
      "single_word": false,
      "lstrip": false,
      "rstrip": false,
      "normalized": false
    },
    {
      "id": 4,
      "special": true,
      "content": "[MASK]",
      "single_word": false,
      "lstrip": false,
      "rstrip": false,
      "normalized": false
    },
    {
      "id": 5,
      "special": true,
      "content": "[DCLS]",
      "single_word": false,
      "lstrip": false,
      "rstrip": false,
      "normalized": false
    }
  ],
  "normalizer": {
    "type": "BertNormalizer",
    "clean_text": true,
    "handle_chinese_chars": true,
    "strip_accents": false,
    "lowercase": false
  },
  "pre_tokenizer": {
    "type": "BertPreTokenizer"
  },
  "post_processor": {
    "type": "TemplateProcessing",
    "single": [
      {
        "SpecialToken": {
          "id": "[CLS]",
          "type_id": 0
        }
      },
      {
        "Sequence": {
          "id": "A",
          "type_id": 0
        }
      },
      {
        "SpecialToken": {
          "id": "[SEP]",
          "type_id": 0
        }
      }
    ],
    "pair": [
      {
        "SpecialToken": {
          "id": "[CLS]",
          "type_id": 0
        }
      },
      {
        "Sequence": {
          "id": "A",
          "type_id": 0
        }
      },
      {
        "SpecialToken": {
          "id": "[SEP]",
          "type_id": 0
        }
      },
      {
        "Sequence": {
          "id": "B",
          "type_id": 1
        }
      },
      {
        "SpecialToken": {
          "id": "[SEP]",
          "type_id": 1
        }
      }
    ],
    "special_tokens": {
      "[CLS]": {
        "id": "[CLS]",
        "ids": [
          2
        ],
        "tokens": [
          "[CLS]"
        ]
      },
      "[SEP]": {
        "id": "[SEP]",
        "ids": [
          3
        ],
        "tokens": [
          "[SEP]"
        ]
      }
    }
  },
  "decoder": {
    "type": "WordPiece",
    "prefix": "##",
    "cleanup": true
  },
  "model": {
    "type": "WordPiece",
    "unk_token": "[UNK]",
    "continuing_subword_prefix": "##",
    "max_input_chars_per_word": 100,
    "vocab": {
      "[UNK]": 0,
      "[PAD]": 1,
      "[CLS]": 2,
      "[SEP]": 3,
      "[MASK]": 4,
      "[DCLS]": 5,
      "!": 6,
      "\"": 7,
      "#": 8,
      "$": 9,
      "%": 10,
      "&": 11,
      "'": 12,
      "(": 13,
      ")": 14,
      "*": 15,
      "+": 16,
      ",": 17,
      "-": 18,
      ".": 19,
      "/": 20,
      "0": 21,
      "1": 22,
      "2": 23,
      "3": 24,
      "4": 25,
      "5": 26,
      "6": 27,
      "7": 28,
      "8": 29,
      "9": 30,
      ":": 31,
      ";": 32,
      "<": 33,
      "=": 34,
      ">": 35,
      "?": 36,
      "@": 37,
      "A": 38,
      "B": 39,
      "C": 40,
      "D": 41,
      "E": 42,
      "F": 43,
      "G": 44,
      "H": 45,
      "I": 46,
      "J": 47,
      "K": 48,
      "L": 49,
      "M": 50,
      "N": 51,
      "O": 52,
      "P": 53,
      "Q": 54,
      "R": 55,
      "S": 56,
      "T": 57,
      "U": 58,
      "V": 59,
      "W": 60,
      "X": 61,
      "Y": 62,
      "Z": 63,
      "[": 64,
      "\\": 65,
      "]": 66,
      "^": 67,
      "_": 68,
      "`": 69,
      "a": 70,
      "b": 71,
      "c": 72,
      "d": 73,
      "e": 74,
      "f": 75,
      "g": 76,
      "h": 77,
      "i": 78,
      "j": 79,
      "k": 80,
      "l": 81,
      "m": 82,
      "n": 83,
      "o": 84,
      "p": 85,
      "q": 86,
      "r": 87,
      "s": 88,
      "t": 89,
      "u": 90,
      "v": 91,
      "w": 92,
      "x": 93,
      "y": 94,
      "z": 95,
      "{": 96,
      "|": 97,
      "}": 98,
      "~": 99,
      "¡": 100,
      "¢": 101,
      "£": 102,
      "¥": 103,
      "§": 104,
      "©": 105,
      "ª": 106,
      "«": 107,
      "®": 108,
      "°": 109,
      "±": 110,
      "²": 111,
      "³": 112,
      "´": 113,
      "µ": 114,
      "·": 115,
      "¹": 116,
      "º": 117,
      "»": 118,
      "¼": 119,
      "½": 120,
      "¾": 121,
      "¿": 122,
      "À": 123,
      "Á": 124,
      "Â": 125,
      "Ä": 126,
      "Å": 127,
      "Æ": 128,
      "Ç": 129,
      "È": 130,
      "É": 131,
      "Ê": 132,
      "Í": 133,
      "Î": 134,
      "Ñ": 135,
      "Ó": 136,
      "Ô": 137,
      "Ö": 138,
      "×": 139,
      "Ø": 140,
      "Ú": 141,
      "Ü": 142,
      "Þ": 143,
      "ß": 144,
      "à": 145,
      "á": 146,
      "â": 147,
      "ã": 148,
      "ä": 149,
      "å": 150,
      "æ": 151,
      "ç": 152,
      "è": 153,
      "é": 154,
      "ê": 155,
      "ë": 156,
      "ì": 157,
      "í": 158,
      "î": 159,
      "ï": 160,
      "ð": 161,
      "ñ": 162,
      "ò": 163,
      "ó": 164,
      "ô": 165,
      "õ": 166,
      "ö": 167,
      "÷": 168,
      "ø": 169,
      "ù": 170,
      "ú": 171,
      "û": 172,
      "ü": 173,
      "ý": 174,
      "þ": 175,
      "ÿ": 176,
      "Ā": 177,
      "ā": 178,
      "ă": 179,
      "ą": 180,
      "Ć": 181,
      "ć": 182,
      "Č": 183,
      "č": 184,
      "ď": 185,
      "Đ": 186,
      "đ": 187,
      "ē": 188,
      "ĕ": 189,
      "ė": 190,
      "ę": 191,
      "ě": 192,
      "ğ": 193,
      "ġ": 194,
      "Ħ": 195,
      "ħ": 196,
      "ĩ": 197,
      "Ī": 198,
      "ī": 199,
      "ĭ": 200,
      "İ": 201,
      "ı": 202,
      "ļ": 203,
      "Ľ": 204,
      "ľ": 205,
      "Ł": 206,
      "ł": 207,
      "ń": 208,
      "ņ": 209,
      "ň": 210,
      "ŋ": 211,
      "Ō": 212,
      "ō": 213,
      "ŏ": 214,
      "ő": 215,
      "Œ": 216,
      "œ": 217,
      "Ř": 218,
      "ř": 219,
      "Ś": 220,
      "ś": 221,
      "Ş": 222,
      "ş": 223,
      "Š": 224,
      "š": 225,
      "ţ": 226,
      "ť": 227,
      "ũ": 228,
      "ū": 229,
      "ŭ": 230,
      "ů": 231,
      "ű": 232,
      "ų": 233,
      "ŵ": 234,
      "ź": 235,
      "Ż": 236,
      "ż": 237,
      "Ž": 238,
      "ž": 239,
      "ſ": 240,
      "Ə": 241,
      "ƒ": 242,
      "ơ": 243,
      "ư": 244,
      "ǎ": 245,
      "ǐ": 246,
      "ǒ": 247,
      "ǔ": 248,
      "ǧ": 249,
      "ǫ": 250,
      "Ș": 251,
      "ș": 252,
      "Ț": 253,
      "ț": 254,
      "ɔ": 255,
      "ɕ": 256,
      "ə": 257,
      "ɛ": 258,
      "ɡ": 259,
      "ɨ": 260,
      "ɪ": 261,
      "ɲ": 262,
      "ʂ": 263,
      "ʃ": 264,
      "ʔ": 265,
      "ʰ": 266,
      "ʷ": 267,
      "ʻ": 268,
      "ʼ": 269,
      "ʾ": 270,
      "ʿ": 271,
      "ˈ": 272,
      "ː": 273,
      "́": 274,
      "̃": 275,
      "̣": 276,
      "͡": 277,
      "Α": 278,
      "Β": 279,
      "Γ": 280,
      "Δ": 281,
      "Ε": 282,
      "Η": 283,
      "Θ": 284,
      "Ι": 285,
      "Κ": 286,
      "Λ": 287,
      "Μ": 288,
      "Ν": 289,
      "Ο": 290,
      "Π": 291,
      "Ρ": 292,
      "Σ": 293,
      "Τ": 294,
      "Υ": 295,
      "Φ": 296,
      "Χ": 297,
      "Ω": 298,
      "ά": 299,
      "έ": 300,
      "ή": 301,
      "ί": 302,
      "α": 303,
      "β": 304,
      "γ": 305,
      "δ": 306,
      "ε": 307,
      "ζ": 308,
      "η": 309,
      "θ": 310,
      "ι": 311,
      "κ": 312,
      "λ": 313,
      "μ": 314,
      "ν": 315,
      "ξ": 316,
      "ο": 317,
      "π": 318,
      "ρ": 319,
      "ς": 320,
      "σ": 321,
      "τ": 322,
      "υ": 323,
      "φ": 324,
      "χ": 325,
      "ψ": 326,
      "ω": 327,
      "ό": 328,
      "ύ": 329,
      "ώ": 330,
      "І": 331,
      "А": 332,
      "Б": 333,
      "В": 334,
      "Г": 335,
      "Д": 336,
      "Е": 337,
      "Ж": 338,
      "З": 339,
      "И": 340,
      "К": 341,
      "Л": 342,
      "М": 343,
      "Н": 344,
      "О": 345,
      "П": 346,
      "Р": 347,
      "С": 348,
      "Т": 349,
      "У": 350,
      "Ф": 351,
      "Х": 352,
      "Ц": 353,
      "Ч": 354,
      "Ш": 355,
      "Э": 356,
      "Ю": 357,
      "Я": 358,
      "а": 359,
      "б": 360,
      "в": 361,
      "г": 362,
      "д": 363,
      "е": 364,
      "ж": 365,
      "з": 366,
      "и": 367,
      "й": 368,
      "к": 369,
      "л": 370,
      "м": 371,
      "н": 372,
      "о": 373,
      "п": 374,
      "р": 375,
      "с": 376,
      "т": 377,
      "у": 378,
      "ф": 379,
      "х": 380,
      "ц": 381,
      "ч": 382,
      "ш": 383,
      "щ": 384,
      "ъ": 385,
      "ы": 386,
      "ь": 387,
      "э": 388,
      "ю": 389,
      "я": 390,
      "ё": 391,
      "і": 392,
      "ї": 393,
      "ј": 394,
      "ћ": 395,
      "ա": 396,
      "ե": 397,
      "ի": 398,
      "կ": 399,
      "մ": 400,
      "յ": 401,
      "ն": 402,
      "ո": 403,
      "ս": 404,
      "տ": 405,
      "ր": 406,
      "ւ": 407,
      "ְ": 408,
      "ִ": 409,
      "ַ": 410,
      "ָ": 411,
      "ּ": 412,
      "א": 413,
      "ב": 414,
      "ג": 415,
      "ד": 416,
      "ה": 417,
      "ו": 418,
      "ז": 419,
      "ח": 420,
      "ט": 421,
      "י": 422,
      "כ": 423,
      "ל": 424,
      "ם": 425,
      "מ": 426,
      "ן": 427,
      "נ": 428,
      "ס": 429,
      "ע": 430,
      "פ": 431,
      "צ": 432,
      "ק": 433,
      "ר": 434,
      "ש": 435,
      "ת": 436,
      "،": 437,
      "آ": 438,
      "أ": 439,
      "ا": 440,
      "ب": 441,
      "ة": 442,
      "ت": 443,
      "ج": 444,
      "ح": 445,
      "خ": 446,
      "د": 447,
      "ر": 448,
      "ز": 449,
      "س": 450,
      "ش": 451,
      "ص": 452,
      "ض": 453,
      "ط": 454,
      "ع": 455,
      "غ": 456,
      "ف": 457,
      "ق": 458,
      "ك": 459,
      "ل": 460,
      "م": 461,
      "ن": 462,
      "ه": 463,
      "و": 464,
      "ى": 465,
      "ي": 466,
      "َ": 467,
      "ُ": 468,
      "ِ": 469,
      "پ": 470,
      "ک": 471,
      "گ": 472,
      "ی": 473,
      "ं": 474,
      "अ": 475,
      "क": 476,
      "ग": 477,
      "च": 478,
      "ज": 479,
      "ट": 480,
      "ड": 481,
      "ण": 482,
      "त": 483,
      "द": 484,
      "ध": 485,
      "न": 486,
      "प": 487,
      "ब": 488,
      "भ": 489,
      "म": 490,
      "य": 491,
      "र": 492,
      "ल": 493,
      "व": 494,
      "श": 495,
      "ष": 496,
      "स": 497,
      "ह": 498,
      "ा": 499,
      "ि": 500,
      "ी": 501,
      "ु": 502,
      "ू": 503,
      "े": 504,
      "ो": 505,
      "्": 506,
      "ক": 507,
      "ত": 508,
      "ন": 509,
      "ব": 510,
      "ম": 511,
      "য": 512,
      "র": 513,
      "ল": 514,
      "স": 515,
      "া": 516,
      "ি": 517,
      "ু": 518,
      "ে": 519,
      "্": 520,
      "க": 521,
      "ச": 522,
      "ட": 523,
      "த": 524,
      "ன": 525,
      "ப": 526,
      "ம": 527,
      "ய": 528,
      "ர": 529,
      "ல": 530,
      "வ": 531,
      "ா": 532,
      "ி": 533,
      "ு": 534,
      "ை": 535,
      "்": 536,
      "ರ": 537,
      "್": 538,
      "ക": 539,
      "ന": 540,
      "ാ": 541,
      "ി": 542,
      "്": 543,
      "න": 544,
      "ර": 545,
      "්": 546,
      "ා": 547,
      "ි": 548,
      "ก": 549,
      "ค": 550,
      "ง": 551,
      "จ": 552,
      "ช": 553,
      "ด": 554,
      "ต": 555,
      "ท": 556,
      "น": 557,
      "บ": 558,
      "ป": 559,
      "พ": 560,
      "ม": 561,
      "ย": 562,
      "ร": 563,
      "ล": 564,
      "ว": 565,
      "ส": 566,
      "ห": 567,
      "อ": 568,
      "ะ": 569,
      "ั": 570,
      "า": 571,
      "ิ": 572,
      "ี": 573,
      "ุ": 574,
      "เ": 575,
      "แ": 576,
      "่": 577,
      "้": 578,
      "์": 579,
      "་": 580,
      "်": 581,
      "ა": 582,
      "ბ": 583,
      "ე": 584,
      "ვ": 585,
      "თ": 586,
      "ი": 587,
      "ლ": 588,
      "მ": 589,
      "ნ": 590,
      "ო": 591,
      "რ": 592,
      "ს": 593,
      "უ": 594,
      "្": 595,
      "ḍ": 596,
      "Ḥ": 597,
      "ḥ": 598,
      "Ḩ": 599,
      "ḩ": 600,
      "Ḫ": 601,
      "ḫ": 602,
      "ḳ": 603,
      "ṃ": 604,
      "ṅ": 605,
      "ṇ": 606,
      "ṛ": 607,
      "Ṣ": 608,
      "ṣ": 609,
      "Ṭ": 610,
      "ṭ": 611,
      "ṯ": 612,
      "ẓ": 613,
      "ạ": 614,
      "ả": 615,
      "ấ": 616,
      "ầ": 617,
      "ậ": 618,
      "ắ": 619,
      "ế": 620,
      "ề": 621,
      "ễ": 622,
      "ệ": 623,
      "ị": 624,
      "ọ": 625,
      "ố": 626,
      "ồ": 627,
      "ộ": 628,
      "ớ": 629,
      "ờ": 630,
      "ợ": 631,
      "ụ": 632,
      "ủ": 633,
      "ứ": 634,
      "ữ": 635,
      "ỳ": 636,
      "ỹ": 637,
      "ἀ": 638,
      "Ἀ": 639,
      "ἐ": 640,
      "ὶ": 641,
      "ὸ": 642,
      "ῖ": 643,
      "ῦ": 644,
      "ῶ": 645,
      "‐": 646,
      "‑": 647,
      "‒": 648,
      "–": 649,
      "—": 650,
      "―": 651,
      "‘": 652,
      "’": 653,
      "‚": 654,
      "“": 655,
      "”": 656,
      "„": 657,
      "†": 658,
      "‡": 659,
      "•": 660,
      "…": 661,
      "‰": 662,
      "′": 663,
      "″": 664,
      "‹": 665,
      "›": 666,
      "€": 667,
      "₹": 668,
      "ℓ": 669,
      "№": 670,
      "ℝ": 671,
      "™": 672,
      "⅓": 673,
      "←": 674,
      "↑": 675,
      "→": 676,
      "↔": 677,
      "⇒": 678,
      "∈": 679,
      "−": 680,
      "∞": 681,
      "∪": 682,
      "≈": 683,
      "≠": 684,
      "≡": 685,
      "≤": 686,
      "≥": 687,
      "⋅": 688,
      "─": 689,
      "━": 690,
      "│": 691,
      "└": 692,
      "├": 693,
      "●": 694,
      "★": 695,
      "☆": 696,
      "♀": 697,
      "♂": 698,
      "♙": 699,
      "♭": 700,
      "⚭": 701,
      "⟨": 702,
      "⟩": 703,
      "、": 704,
      "。": 705,
      "《": 706,
      "》": 707,
      "「": 708,
      "」": 709,
      "『": 710,
      "』": 711,
      "あ": 712,
      "い": 713,
      "う": 714,
      "お": 715,
      "か": 716,
      "が": 717,
      "き": 718,
      "く": 719,
      "け": 720,
      "こ": 721,
      "さ": 722,
      "し": 723,
      "す": 724,
      "た": 725,
      "ち": 726,
      "っ": 727,
      "つ": 728,
      "て": 729,
      "と": 730,
      "な": 731,
      "に": 732,
      "の": 733,
      "は": 734,
      "ま": 735,
      "み": 736,
      "も": 737,
      "よ": 738,
      "ら": 739,
      "り": 740,
      "る": 741,
      "れ": 742,
      "を": 743,
      "ん": 744,
      "ア": 745,
      "ィ": 746,
      "イ": 747,
      "ウ": 748,
      "エ": 749,
      "オ": 750,
      "カ": 751,
      "ガ": 752,
      "キ": 753,
      "ク": 754,
      "グ": 755,
      "コ": 756,
      "サ": 757,
      "シ": 758,
      "ジ": 759,
      "ス": 760,
      "ズ": 761,
      "タ": 762,
      "ダ": 763,
      "チ": 764,
      "ッ": 765,
      "テ": 766,
      "デ": 767,
      "ト": 768,
      "ド": 769,
      "ナ": 770,
      "ニ": 771,
      "ノ": 772,
      "ハ": 773,
      "バ": 774,
      "パ": 775,
      "ビ": 776,
      "フ": 777,
      "ブ": 778,
      "プ": 779,
      "マ": 780,
      "ミ": 781,
      "ム": 782,
      "メ": 783,
      "モ": 784,
      "ャ": 785,
      "ラ": 786,
      "リ": 787,
      "ル": 788,
      "レ": 789,
      "ロ": 790,
      "ン": 791,
      "・": 792,
      "ー": 793,
      "一": 794,
      "三": 795,
      "上": 796,
      "下": 797,
      "不": 798,
      "世": 799,
      "东": 800,
      "中": 801,
      "主": 802,
      "之": 803,
      "乡": 804,
      "事": 805,
      "二": 806,
      "五": 807,
      "京": 808,
      "人": 809,
      "仁": 810,
      "代": 811,
      "会": 812,
      "你": 813,
      "信": 814,
      "元": 815,
      "光": 816,
      "全": 817,
      "八": 818,
      "公": 819,
      "出": 820,
      "劉": 821,
      "化": 822,
      "北": 823,
      "区": 824,
      "十": 825,
      "华": 826,
      "南": 827,
      "原": 828,
      "县": 829,
      "口": 830,
      "古": 831,
      "台": 832,
      "史": 833,
      "司": 834,
      "合": 835,
      "吉": 836,
      "同": 837,
      "名": 838,
      "周": 839,
      "和": 840,
      "四": 841,
      "国": 842,
      "國": 843,
      "土": 844,
      "地": 845,
      "城": 846,
      "堂": 847,
      "士": 848,
      "夏": 849,
      "大": 850,
      "天": 851,
      "太": 852,
      "女": 853,
      "子": 854,
      "学": 855,
      "學": 856,
      "安": 857,
      "宗": 858,
      "家": 859,
      "宿": 860,
      "寺": 861,
      "小": 862,
      "山": 863,
      "島": 864,
      "川": 865,
      "州": 866,
      "市": 867,
      "平": 868,
      "年": 869,
      "張": 870,
      "德": 871,
      "心": 872,
      "志": 873,
      "情": 874,
      "愛": 875,
      "成": 876,
      "我": 877,
      "手": 878,
      "教": 879,
      "文": 880,
      "新": 881,
      "方": 882,
      "族": 883,
      "日": 884,
      "明": 885,
      "星": 886,
      "春": 887,
      "曲": 888,
      "書": 889,
      "會": 890,
      "月": 891,
      "有": 892,
      "木": 893,
      "本": 894,
      "李": 895,
      "村": 896,
      "東": 897,
      "松": 898,
      "林": 899,
      "校": 900,
      "歌": 901,
      "正": 902,
      "武": 903,
      "氏": 904,
      "民": 905,
      "水": 906,
      "永": 907,
      "江": 908,
      "河": 909,
      "法": 910,
      "流": 911,
      "海": 912,
      "清": 913,
      "港": 914,
      "湖": 915,
      "版": 916,
      "物": 917,
      "玉": 918,
      "王": 919,
      "理": 920,
      "生": 921,
      "田": 922,
      "白": 923,
      "的": 924,
      "皇": 925,
      "真": 926,
      "石": 927,
      "研": 928,
      "社": 929,
      "神": 930,
      "福": 931,
      "科": 932,
      "究": 933,
      "空": 934,
      "立": 935,
      "第": 936,
      "美": 937,
      "義": 938,
      "自": 939,
      "花": 940,
      "英": 941,
      "華": 942,
      "藤": 943,
      "行": 944,
      "街": 945,
      "西": 946,
      "記": 947,
      "語": 948,
      "语": 949,
      "路": 950,
      "軍": 951,
      "通": 952,
      "道": 953,
      "郎": 954,
      "郡": 955,
      "部": 956,
      "都": 957,
      "里": 958,
      "野": 959,
      "金": 960,
      "镇": 961,
      "長": 962,
      "門": 963,
      "阳": 964,
      "阿": 965,
      "院": 966,
      "陳": 967,
      "陽": 968,
      "集": 969,
      "青": 970,
      "音": 971,
      "風": 972,
      "香": 973,
      "馬": 974,
      "马": 975,
      "高": 976,
      "黄": 977,
      "龍": 978,
      "龙": 979,
      "가": 980,
      "고": 981,
      "국": 982,
      "기": 983,
      "나": 984,
      "다": 985,
      "대": 986,
      "도": 987,
      "동": 988,
      "리": 989,
      "사": 990,
      "스": 991,
      "시": 992,
      "아": 993,
      "의": 994,
      "이": 995,
      "인": 996,
      "자": 997,
      "정": 998,
      "지": 999,
      "한": 1000,
      "（": 1001,
      "）": 1002,
      "，": 1003,
      "：": 1004,
      "～": 1005,
      "##5": 1006,
      "##6": 1007,
      "##9": 1008,
      "##1": 1009,
      "##a": 1010,
      "##l": 1011,
      "##i": 1012,
      "##o": 1013,
      "##n": 1014,
      "##c": 1015,
      "##e": 1016,
      "##H": 1017,
      "##F": 1018,
      "##0": 1019,
      "##E": 1020,
      "##t": 1021,
      "##w": 1022,
      "##k": 1023,
      "##u": 1024,
      "##g": 1025,
      "##r": 1026,
      "##s": 1027,
      "##h": 1028,
      "##f": 1029,
      "##ä": 1030,
      "##m": 1031,
      "##ú": 1032,
      "##ð": 1033,
      "##2": 1034,
      "##S": 1035,
      "##b": 1036,
      "##ö": 1037,
      "##v": 1038,
      "##z": 1039,
      "##d": 1040,
      "##T": 1041,
      "##y": 1042,
      "##p": 1043,
      "##ü": 1044,
      "##é": 1045,
      "##M": 1046,
      "##8": 1047,
      "##3": 1048,
      "##7": 1049,
      "##4": 1050,
      "##ß": 1051,
      "##V": 1052,
      "##I": 1053,
      "##ż": 1054,
      "##ó": 1055,
      "##B": 1056,
      "##Z": 1057,
      "##j": 1058,
      "##N": 1059,
      "##A": 1060,
      "##ā": 1061,
      "##R": 1062,
      "##O": 1063,
      "##½": 1064,
      "##ą": 1065,
      "##្": 1066,
      "##α": 1067,
      "##ῦ": 1068,
      "##τ": 1069,
      "##ά": 1070,
      "##ế": 1071,
      "##ो": 1072,
      "##ट": 1073,
      "##²": 1074,
      "##è": 1075,
      "##x": 1076,
      "##q": 1077,
      "##ș": 1078,
      "##ñ": 1079,
      "##X": 1080,
      "##K": 1081,
      "##C": 1082,
      "##Y": 1083,
      "##G": 1084,
      "##U": 1085,
      "##P": 1086,
      "##W": 1087,
      "##L": 1088,
      "##ρ": 1089,
      "##ι": 1090,
      "##σ": 1091,
      "##ο": 1092,
      "##å": 1093,
      "##κ": 1094,
      "##β": 1095,
      "##ν": 1096,
      "##ɛ": 1097,
      "##정": 1098,
      "##동": 1099,
      "##á": 1100,
      "##×": 1101,
      "##ī": 1102,
      "##D": 1103,
      "##ի": 1104,
      "##ւ": 1105,
      "##ă": 1106,
      "##í": 1107,
      "##ï": 1108,
      "##ò": 1109,
      "##а": 1110,
      "##ч": 1111,
      "##и": 1112,
      "##ш": 1113,
      "##т": 1114,
      "##→": 1115,
      "##з": 1116,
      "##х": 1117,
      "##с": 1118,
      "##н": 1119,
      "##к": 1120,
      "##о": 1121,
      "##м": 1122,
      "##∈": 1123,
      "##р": 1124,
      "##я": 1125,
      "##가": 1126,
      "##ت": 1127,
      "##ك": 1128,
      "##ل": 1129,
      "##م": 1130,
      "##ç": 1131,
      "##ę": 1132,
      "##ィ": 1133,
      "##ッ": 1134,
      "##ト": 1135,
      "##č": 1136,
      "##ь": 1137,
      "##е": 1138,
      "##в": 1139,
      "##ц": 1140,
      "##°": 1141,
      "##ा": 1142,
      "##ल": 1143,
      "##ि": 1144,
      "##क": 1145,
      "##ć": 1146,
      "##ø": 1147,
      "##š": 1148,
      "##à": 1149,
      "##J": 1150,
      "##û": 1151,
      "##г": 1152,
      "##л": 1153,
      "##ン": 1154,
      "##タ": 1155,
      "##ー": 1156,
      "##͡": 1157,
      "##と": 1158,
      "##い": 1159,
      "##こ": 1160,
      "##が": 1161,
      "##あ": 1162,
      "##る": 1163,
      "##ニ": 1164,
      "##ý": 1165,
      "##ʿ": 1166,
      "##â": 1167,
      "##त": 1168,
      "##ी": 1169,
      "##υ": 1170,
      "##ί": 1171,
      "##ë": 1172,
      "##ъ": 1173,
      "##у": 1174,
      "##д": 1175,
      "##ǎ": 1176,
      "##́": 1177,
      "##ō": 1178,
      "##Ô": 1179,
      "##б": 1180,
      "##ж": 1181,
      "##Ś": 1182,
      "##ћ": 1183,
      "##े": 1184,
      "##ṭ": 1185,
      "##ร": 1186,
      "##ุ": 1187,
      "##ี": 1188,
      "##−": 1189,
      "##ė": 1190,
      "##ś": 1191,
      "##ū": 1192,
      "##ع": 1193,
      "##ر": 1194,
      "##ض": 1195,
      "##î": 1196,
      "##ł": 1197,
      "##і": 1198,
      "##ž": 1199,
      "##व": 1200,
      "##र": 1201,
      "##É": 1202,
      "##æ": 1203,
      "##ق": 1204,
      "##ص": 1205,
      "##و": 1206,
      "##ة": 1207,
      "##п": 1208,
      "##ы": 1209,
      "##й": 1210,
      "##ا": 1211,
      "##ه": 1212,
      "##ʷ": 1213,
      "##ə": 1214,
      "##π": 1215,
      "##θ": 1216,
      "##ε": 1217,
      "##ē": 1218,
      "##ո": 1219,
      "##ն": 1220,
      "##ա": 1221,
      "##ր": 1222,
      "##ե": 1223,
      "##™": 1224,
      "##ã": 1225,
      "##̃": 1226,
      "##ز": 1227,
      "##щ": 1228,
      "##ḳ": 1229,
      "##ش": 1230,
      "##ب": 1231,
      "##ن": 1232,
      "##Q": 1233,
      "##ガ": 1234,
      "##リ": 1235,
      "##श": 1236,
      "##ะ": 1237,
      "##า": 1238,
      "##ช": 1239,
      "##บ": 1240,
      "##ั": 1241,
      "##ต": 1242,
      "##ิ": 1243,
      "##ส": 1244,
      "##ं": 1245,
      "##्": 1246,
      "##य": 1247,
      "##ì": 1248,
      "##ύ": 1249,
      "##ʾ": 1250,
      "##ı": 1251,
      "##म": 1252,
      "##´": 1253,
      "##ַ": 1254,
      "##ל": 1255,
      "##ְ": 1256,
      "##מ": 1257,
      "##ִ": 1258,
      "##י": 1259,
      "##ן": 1260,
      "##न": 1261,
      "##च": 1262,
      "##μ": 1263,
      "##ω": 1264,
      "##う": 1265,
      "##つ": 1266,
      "##の": 1267,
      "##ア": 1268,
      "##フ": 1269,
      "##ス": 1270,
      "##η": 1271,
      "##ς": 1272,
      "##ї": 1273,
      "##ح": 1274,
      "##한": 1275,
      "##ô": 1276,
      "##ル": 1277,
      "##ê": 1278,
      "##ń": 1279,
      "##ध": 1280,
      "##シ": 1281,
      "##キ": 1282,
      "##モ": 1283,
      "##λ": 1284,
      "##έ": 1285,
      "##γ": 1286,
      "##ɔ": 1287,
      "##ˈ": 1288,
      "##ɨ": 1289,
      "##נ": 1290,
      "##צ": 1291,
      "##ח": 1292,
      "##ו": 1293,
      "##भ": 1294,
      "##ř": 1295,
      "##õ": 1296,
      "##인": 1297,
      "##ி": 1298,
      "##ர": 1299,
      "##ு": 1300,
      "##ம": 1301,
      "##்": 1302,
      "##س": 1303,
      "##ی": 1304,
      "##ก": 1305,
      "##ย": 1306,
      "##ม": 1307,
      "##เ": 1308,
      "##ท": 1309,
      "##่": 1310,
      "##้": 1311,
      "##ह": 1312,
      "##ण": 1313,
      "##ј": 1314,
      "##ŭ": 1315,
      "##د": 1316,
      "##ר": 1317,
      "##ה": 1318,
      "##А": 1319,
      "##И": 1320,
      "##З": 1321,
      "##プ": 1322,
      "##ː": 1323,
      "##Ж": 1324,
      "##ź": 1325,
      "##ọ": 1326,
      "##ṛ": 1327,
      "##ṣ": 1328,
      "##ή": 1329,
      "##ů": 1330,
      "##ʰ": 1331,
      "##ğ": 1332,
      "##ல": 1333,
      "##ş": 1334,
      "##Á": 1335,
      "##メ": 1336,
      "##ラ": 1337,
      "##グ": 1338,
      "##의": 1339,
      "##რ": 1340,
      "##ი": 1341,
      "##ლ": 1342,
      "##ო": 1343,
      "##ბ": 1344,
      "##ა": 1345,
      "##œ": 1346,
      "##ּ": 1347,
      "##ु": 1348,
      "##ÿ": 1349,
      "##ư": 1350,
      "##ő": 1351,
      "##り": 1352,
      "##್": 1353,
      "##ţ": 1354,
      "##þ": 1355,
      "##ṃ": 1356,
      "##ě": 1357,
      "##В": 1358,
      "##Г": 1359,
      "##У": 1360,
      "##ʃ": 1361,
      "##ʼ": 1362,
      "##ħ": 1363,
      "##리": 1364,
      "##ล": 1365,
      "##อ": 1366,
      "##ง": 1367,
      "##ா": 1368,
      "##ட": 1369,
      "##↔": 1370,
      "##ウ": 1371,
      "##イ": 1372,
      "##ロ": 1373,
      "##ハ": 1374,
      "##マ": 1375,
      "##ώ": 1376,
      "##ʔ": 1377,
      "##기": 1378,
      "##พ": 1379,
      "##ų": 1380,
      "##ĕ": 1381,
      "##ɲ": 1382,
      "##º": 1383,
      "##ǔ": 1384,
      "##ю": 1385,
      "##ड": 1386,
      "##←": 1387,
      "##나": 1388,
      "##Я": 1389,
      "##φ": 1390,
      "##Р": 1391,
      "##Ч": 1392,
      "##Н": 1393,
      "##ù": 1394,
      "##이": 1395,
      "##ŏ": 1396,
      "##ん": 1397,
      "##に": 1398,
      "##ク": 1399,
      "##ナ": 1400,
      "##テ": 1401,
      "##¹": 1402,
      "##ό": 1403,
      "##ज": 1404,
      "##À": 1405,
      "##്": 1406,
      "##～": 1407,
      "##น": 1408,
      "##ห": 1409,
      "##ש": 1410,
      "##ב": 1411,
      "##ע": 1412,
      "##ビ": 1413,
      "##ț": 1414,
      "##ζ": 1415,
      "##ǫ": 1416,
      "##ダ": 1417,
      "##ド": 1418,
      "##ジ": 1419,
      "##ャ": 1420,
      "##ố": 1421,
      "##ج": 1422,
      "##ي": 1423,
      "##ṯ": 1424,
      "##ű": 1425,
      "##ǒ": 1426,
      "##ʻ": 1427,
      "##ष": 1428,
      "##ǐ": 1429,
      "##த": 1430,
      "##פ": 1431,
      "##א": 1432,
      "##ḥ": 1433,
      "##ḫ": 1434,
      "##أ": 1435,
      "##Þ": 1436,
      "##ف": 1437,
      "##տ": 1438,
      "##チ": 1439,
      "##ג": 1440,
      "##Φ": 1441,
      "##♭": 1442,
      "##ด": 1443,
      "##ว": 1444,
      "##χ": 1445,
      "##Ü": 1446,
      "##☆": 1447,
      "##Ā": 1448,
      "##ŋ": 1449,
      "##─": 1450,
      "##ט": 1451,
      "##ת": 1452,
      "##エ": 1453,
      "##ň": 1454,
      "##์": 1455,
      "##М": 1456,
      "##オ": 1457,
      "##া": 1458,
      "##ম": 1459,
      "##स": 1460,
      "##ɕ": 1461,
      "##£": 1462,
      "##э": 1463,
      "##ნ": 1464,
      "##み": 1465,
      "##ṅ": 1466,
      "##ま": 1467,
      "##く": 1468,
      "##대": 1469,
      "##ノ": 1470,
      "##ু": 1471,
      "##ব": 1472,
      "##র": 1473,
      "##্": 1474,
      "##ে": 1475,
      "##ন": 1476,
      "##ム": 1477,
      "##カ": 1478,
      "##コ": 1479,
      "##ụ": 1480,
      "##ủ": 1481,
      "##ĭ": 1482,
      "##ф": 1483,
      "##ד": 1484,
      "##خ": 1485,
      "##ى": 1486,
      "##வ": 1487,
      "##ய": 1488,
      "##න": 1489,
      "##්": 1490,
      "##ර": 1491,
      "##ා": 1492,
      "##は": 1493,
      "##ら": 1494,
      "##க": 1495,
      "##ک": 1496,
      "##َ": 1497,
      "##ِ": 1498,
      "##ි": 1499,
      "##Ö": 1500,
      "##ズ": 1501,
      "##ʂ": 1502,
      "##ſ": 1503,
      "##ɡ": 1504,
      "##ை": 1505,
      "##پ": 1506,
      "##ָ": 1507,
      "##द": 1508,
      "##כ": 1509,
      "##ם": 1510,
      "##バ": 1511,
      "##Ş": 1512,
      "##О": 1513,
      "##ệ": 1514,
      "##ĩ": 1515,
      "##ס": 1516,
      "##ק": 1517,
      "##ط": 1518,
      "##Μ": 1519,
      "##Η": 1520,
      "##Σ": 1521,
      "##Τ": 1522,
      "##Ρ": 1523,
      "##Α": 1524,
      "##ṇ": 1525,
      "##ḍ": 1526,
      "##ё": 1527,
      "##다": 1528,
      "##사": 1529,
      "##แ": 1530,
      "##도": 1531,
      "##ക": 1532,
      "##Κ": 1533,
      "##★": 1534,
      "##δ": 1535,
      "##प": 1536,
      "##غ": 1537,
      "##국": 1538,
      "##Æ": 1539,
      "##Δ": 1540,
      "##Χ": 1541,
      "##∞": 1542,
      "##지": 1543,
      "##য": 1544,
      "##Č": 1545,
      "##ỹ": 1546,
      "##ņ": 1547,
      "##レ": 1548,
      "##®": 1549,
      "##ग": 1550,
      "##≡": 1551,
      "##€": 1552,
      "##ப": 1553,
      "##ச": 1554,
      "##±": 1555,
      "##İ": 1556,
      "##ť": 1557,
      "##ơ": 1558,
      "##아": 1559,
      "##き": 1560,
      "##デ": 1561,
      "##っ": 1562,
      "##け": 1563,
      "##よ": 1564,
      "##ვ": 1565,
      "##Ž": 1566,
      "##Ç": 1567,
      "##Ι": 1568,
      "##უ": 1569,
      "##მ": 1570,
      "##ე": 1571,
      "##ს": 1572,
      "##স": 1573,
      "##ত": 1574,
      "##ļ": 1575,
      "##ψ": 1576,
      "##đ": 1577,
      "##С": 1578,
      "##ป": 1579,
      "##ġ": 1580,
      "##≥": 1581,
      "##ি": 1582,
      "##ാ": 1583,
      "##ി": 1584,
      "##گ": 1585,
      "##ս": 1586,
      "##մ": 1587,
      "##յ": 1588,
      "##Ε": 1589,
      "##ɪ": 1590,
      "##な": 1591,
      "##サ": 1592,
      "##ῖ": 1593,
      "##ന": 1594,
      "##た": 1595,
      "##ち": 1596,
      "##て": 1597,
      "##ξ": 1598,
      "##ז": 1599,
      "##ன": 1600,
      "##Ν": 1601,
      "##Л": 1602,
      "##Ш": 1603,
      "##ರ": 1604,
      "##ǧ": 1605,
      "##Π": 1606,
      "##Ο": 1607,
      "##آ": 1608,
      "##ল": 1609,
      "##고": 1610,
      "##も": 1611,
      "##ª": 1612,
      "##し": 1613,
      "##ू": 1614,
      "##÷": 1615,
      "##Ф": 1616,
      "##თ": 1617,
      "##Ä": 1618,
      "##≤": 1619,
      "##ẓ": 1620,
      "##ค": 1621,
      "##կ": 1622,
      "##Е": 1623,
      "##³": 1624,
      "##⋅": 1625,
      "##်": 1626,
      "##К": 1627,
      "##Ó": 1628,
      "##Т": 1629,
      "##Э": 1630,
      "##ミ": 1631,
      "##パ": 1632,
      "##ľ": 1633,
      "##Д": 1634,
      "##Б": 1635,
      "##̣": 1636,
      "##Υ": 1637,
      "##│": 1638,
      "##Λ": 1639,
      "##©": 1640,
      "##ῶ": 1641,
      "##Ω": 1642,
      "##시": 1643,
      "##ả": 1644,
      "##µ": 1645,
      "##ُ": 1646,
      "##Х": 1647,
      "##ब": 1648,
      "##È": 1649,
      "##ক": 1650,
      "##す": 1651,
      "##⚭": 1652,
      "##⅓": 1653,
      "##Å": 1654,
      "##≠": 1655,
      "##ứ": 1656,
      "##か": 1657,
      "##Í": 1658,
      "##ḩ": 1659,
      "##Â": 1660,
      "##れ": 1661,
      "##П": 1662,
      "##さ": 1663,
      "##스": 1664,
      "##¼": 1665,
      "##≈": 1666,
      "##Š": 1667,
      "##จ": 1668,
      "##Ī": 1669,
      "##Γ": 1670,
      "##Ñ": 1671,
      "##자": 1672,
      "##Β": 1673,
      "##Ú": 1674,
      "##ブ": 1675,
      "##ấ": 1676,
      "##↑": 1677,
      "##ầ": 1678,
      "##Ц": 1679,
      "##І": 1680,
      "##お": 1681,
      "##ị": 1682,
      "##ὸ": 1683,
      "##を": 1684,
      "##ợ": 1685,
      "##Ć": 1686,
      "##Î": 1687,
      "##ŵ": 1688,
      "##ƒ": 1689,
      "##₹": 1690,
      "##Ł": 1691,
      "##ũ": 1692,
      "##ď": 1693,
      "##Ḥ": 1694,
      "##ὶ": 1695,
      "##Ř": 1696,
      "##ồ": 1697,
      "##ộ": 1698,
      "##Ə": 1699,
      "##ạ": 1700,
      "##Ø": 1701,
      "##ớ": 1702,
      "##¾": 1703,
      "##ờ": 1704,
      "##अ": 1705,
      "##⇒": 1706,
      "##Θ": 1707,
      "##Ḫ": 1708,
      "##●": 1709,
      "##Ṣ": 1710,
      "##Ż": 1711,
      "##Ō": 1712,
      "##Ṭ": 1713,
      "##∪": 1714,
      "##Ê": 1715,
      "##¢": 1716,
      "##ữ": 1717,
      "##ề": 1718,
      "##Ю": 1719,
      "##ἀ": 1720,
      "##Đ": 1721,
      "##ℝ": 1722,
      "##♀": 1723,
      "##━": 1724,
      "##¥": 1725,
      "##ắ": 1726,
      "##ễ": 1727,
      "##ℓ": 1728,
      "##ậ": 1729,
      "##Ș": 1730,
      "##ỳ": 1731,
      "##Œ": 1732,
      "##№": 1733,
      "##Ħ": 1734,
      "##♙": 1735,
      "##Ț": 1736,
      "##ἐ": 1737,
      "##├": 1738,
      "##♂": 1739,
      "##└": 1740,
      "##Ľ": 1741,
      "##Ἀ": 1742,
      "##Ḩ": 1743,
      "##er": 1744,
      "##en": 1745,
      "##on": 1746,
      "##es": 1747,
      "##in": 1748,
      "##an": 1749,
      "##or": 1750,
      "##at": 1751,
      "##he": 1752,
      "##ar": 1753,
      "##is": 1754,
      "##it": 1755,
      "##al": 1756,
      "##ch": 1757,
      "the": 1758,
      "##nd": 1759,
      "##ed": 1760,
      "##el": 1761,
      "in": 1762,
      "##ur": 1763,
      "##as": 1764,
      "##ion": 1765,
      "##ic": 1766,
      "##re": 1767,
      "##st": 1768,
      "##ie": 1769,
      "##il": 1770,
      "of": 1771,
      "##om": 1772,
      "##ent": 1773,
      "de": 1774,
      "##ol": 1775,
      "##ing": 1776,
      "##le": 1777,
      "##ou": 1778,
      "and": 1779,
      "##am": 1780,
      "##te": 1781,
      "19": 1782,
      "##eg": 1783,
      "##ro": 1784,
      "##et": 1785,
      "##ig": 1786,
      "##us": 1787,
      "##ra": 1788,
      "to": 1789,
      "##ter": 1790,
      "##un": 1791,
      "##iv": 1792,
      "##em": 1793,
      "##ir": 1794,
      "20": 1795,
      "##ut": 1796,
      "##la": 1797,
      "##ers": 1798,
      "##ec": 1799,
      "##ation": 1800,
      "##and": 1801,
      "##ad": 1802,
      "##ri": 1803,
      "##ot": 1804,
      "al": 1805,
      "la": 1806,
      "##ich": 1807,
      "##ateg": 1808,
      "##ist": 1809,
      "##ategor": 1810,
      "##id": 1811,
      "un": 1812,
      "##ce": 1813,
      "##os": 1814,
      "##im": 1815,
      "##um": 1816,
      "##ag": 1817,
      "der": 1818,
      "di": 1819,
      "##ul": 1820,
      "th": 1821,
      "##th": 1822,
      "##ia": 1823,
      "The": 1824,
      "##ct": 1825,
      "con": 1826,
      "en": 1827,
      "an": 1828,
      "##est": 1829,
      "for": 1830,
      "st": 1831,
      "##qu": 1832,
      "##op": 1833,
      "und": 1834,
      "le": 1835,
      "Categor": 1836,
      "was": 1837,
      "##ber": 1838,
      "##ant": 1839,
      "on": 1840,
      "des": 1841,
      "Category": 1842,
      "##ow": 1843,
      "##all": 1844,
      "com": 1845,
      "##oc": 1846,
      "is": 1847,
      "##ess": 1848,
      "##ung": 1849,
      "as": 1850,
      "St": 1851,
      "##ine": 1852,
      "##ge": 1853,
      "et": 1854,
      "##ell": 1855,
      "##ere": 1856,
      "##our": 1857,
      "##ts": 1858,
      "be": 1859,
      "In": 1860,
      "201": 1861,
      "##end": 1862,
      "200": 1863,
      "##ith": 1864,
      "##ov": 1865,
      "##od": 1866,
      "##ac": 1867,
      "##ab": 1868,
      "pro": 1869,
      "##og": 1870,
      "##ay": 1871,
      "##art": 1872,
      "au": 1873,
      "##hr": 1874,
      "##pp": 1875,
      "##ud": 1876,
      "wh": 1877,
      "se": 1878,
      "fr": 1879,
      "die": 1880,
      "##ans": 1881,
      "qu": 1882,
      "##ne": 1883,
      "##ff": 1884,
      "at": 1885,
      "##ort": 1886,
      "with": 1887,
      "##ly": 1888,
      "##li": 1889,
      "##av": 1890,
      "##ard": 1891,
      "##ain": 1892,
      "by": 1893,
      "##ach": 1894,
      "##ub": 1895,
      "18": 1896,
      "re": 1897,
      "##se": 1898,
      "##au": 1899,
      "##ier": 1900,
      "##ian": 1901,
      "##if": 1902,
      "du": 1903,
      "##ate": 1904,
      "##ap": 1905,
      "##ip": 1906,
      "##ies": 1907,
      "##ien": 1908,
      "##ten": 1909,
      "##ver": 1910,
      "Ch": 1911,
      "##ass": 1912,
      "del": 1913,
      "im": 1914,
      "est": 1915,
      "##ment": 1916,
      "pr": 1917,
      "##che": 1918,
      "##ale": 1919,
      "##sch": 1920,
      "il": 1921,
      "##ord": 1922,
      "er": 1923,
      "su": 1924,
      "ch": 1925,
      "##ak": 1926,
      "Le": 1927,
      "or": 1928,
      "##ru": 1929,
      "ein": 1930,
      "##isch": 1931,
      "from": 1932,
      "Un": 1933,
      "##ew": 1934,
      "##ern": 1935,
      "##ity": 1936,
      "##io": 1937,
      "##ond": 1938,
      "von": 1939,
      "##mer": 1940,
      "##ill": 1941,
      "##ann": 1942,
      "Al": 1943,
      "199": 1944,
      "Re": 1945,
      "ex": 1946,
      "##ost": 1947,
      "##ces": 1948,
      "that": 1949,
      "##iz": 1950,
      "he": 1951,
      "##igh": 1952,
      "##ang": 1953,
      "##ore": 1954,
      "##me": 1955,
      "##eb": 1956,
      "##pr": 1957,
      "als": 1958,
      "##to": 1959,
      "par": 1960,
      "ar": 1961,
      "##ik": 1962,
      "##ire": 1963,
      "##ks": 1964,
      "##de": 1965,
      "sp": 1966,
      "An": 1967,
      "##rit": 1968,
      "##que": 1969,
      "##ive": 1970,
      "##ast": 1971,
      "##ib": 1972,
      "##ust": 1973,
      "per": 1974,
      "##ont": 1975,
      "Ar": 1976,
      "##tern": 1977,
      "##ong": 1978,
      "##iss": 1979,
      "##ph": 1980,
      "##eit": 1981,
      "Sch": 1982,
      "##ish": 1983,
      "##ear": 1984,
      "##iel": 1985,
      "##ran": 1986,
      "##ég": 1987,
      "##ue": 1988,
      "##ial": 1989,
      "##ions": 1990,
      "Mar": 1991,
      "##ah": 1992,
      "##cc": 1993,
      "les": 1994,
      "den": 1995,
      "##ric": 1996,
      "##ure": 1997,
      "##ind": 1998,
      "his": 1999,
      "##oun": 2000,
      "##ens": 2001,
      "##fer": 2002,
      "##ign": 2003,
      "He": 2004,
      "##du": 2005,
      "##ft": 2006,
      "##az": 2007,
      "##ug": 2008,
      "##ated": 2009,
      "##per": 2010,
      "198": 2011,
      "##are": 2012,
      "comp": 2013,
      "Th": 2014,
      "##ld": 2015,
      "Kategor": 2016,
      "Kategorie": 2017,
      "##ary": 2018,
      "pla": 2019,
      "##ite": 2020,
      "##rou": 2021,
      "##ck": 2022,
      "##ür": 2023,
      "##ame": 2024,
      "##ect": 2025,
      "##ement": 2026,
      "Cat": 2027,
      "are": 2028,
      "La": 2029,
      "En": 2030,
      "##amp": 2031,
      "##ione": 2032,
      "##we": 2033,
      "##ato": 2034,
      "##ée": 2035,
      "mit": 2036,
      "##ous": 2037,
      "##és": 2038,
      "##lich": 2039,
      "av": 2040,
      "##ais": 2041,
      "##land": 2042,
      "197": 2043,
      "##age": 2044,
      "ab": 2045,
      "##erv": 2046,
      "##00": 2047,
      "##ss": 2048,
      "##pt": 2049,
      "Sp": 2050,
      "De": 2051,
      "##oh": 2052,
      "##gh": 2053,
      "##ilm": 2054,
      "##orie": 2055,
      "am": 2056,
      "##res": 2057,
      "##orm": 2058,
      "##lic": 2059,
      "##ér": 2060,
      "##les": 2061,
      "cont": 2062,
      "Se": 2063,
      "##ob": 2064,
      "part": 2065,
      "tra": 2066,
      "dem": 2067,
      "##ors": 2068,
      "it": 2069,
      "##ok": 2070,
      "une": 2071,
      "##ert": 2072,
      "wur": 2073,
      "##égorie": 2074,
      "##ry": 2075,
      "##ational": 2076,
      "##ath": 2077,
      "Catégorie": 2078,
      "##ations": 2079,
      "sc": 2080,
      "##ult": 2081,
      "##ction": 2082,
      "ad": 2083,
      "were": 2084,
      "##oll": 2085,
      "##und": 2086,
      "196": 2087,
      "##ice": 2088,
      "##ile": 2089,
      "##ivers": 2090,
      "##orn": 2091,
      "##cl": 2092,
      "##ences": 2093,
      "Die": 2094,
      "dans": 2095,
      "##ide": 2096,
      "##ise": 2097,
      "che": 2098,
      "##ischen": 2099,
      "##erm": 2100,
      "also": 2101,
      "pl": 2102,
      "It": 2103,
      "##ition": 2104,
      "sur": 2105,
      "Com": 2106,
      "which": 2107,
      "app": 2108,
      "##ique": 2109,
      "sh": 2110,
      "##ight": 2111,
      "Il": 2112,
      "auf": 2113,
      "dé": 2114,
      "cl": 2115,
      "##ta": 2116,
      "17": 2117,
      "rec": 2118,
      "##ical": 2119,
      "Pro": 2120,
      "##ins": 2121,
      "##ance": 2122,
      "##ork": 2123,
      "##ons": 2124,
      "##aus": 2125,
      "##oy": 2126,
      "##ild": 2127,
      "aus": 2128,
      "##ome": 2129,
      "##sp": 2130,
      "##ound": 2131,
      "play": 2132,
      "not": 2133,
      "ver": 2134,
      "##ally": 2135,
      "Par": 2136,
      "##olog": 2137,
      "##ied": 2138,
      "Fran": 2139,
      "##att": 2140,
      "war": 2141,
      "all": 2142,
      "##ata": 2143,
      "##ount": 2144,
      "194": 2145,
      "##ze": 2146,
      "##out": 2147,
      "##ahr": 2148,
      "te": 2149,
      "ne": 2150,
      "##ater": 2151,
      "ist": 2152,
      "##ogra": 2153,
      "res": 2154,
      "##den": 2155,
      "wurde": 2156,
      "##ille": 2157,
      "195": 2158,
      "##irst": 2159,
      "##one": 2160,
      "##ett": 2161,
      "comm": 2162,
      "zu": 2163,
      "nel": 2164,
      "##ke": 2165,
      "tr": 2166,
      "das": 2167,
      "##onn": 2168,
      "rel": 2169,
      "für": 2170,
      "##ese": 2171,
      "##mp": 2172,
      "dur": 2173,
      "##enn": 2174,
      "##ence": 2175,
      "pre": 2176,
      "Er": 2177,
      "##ament": 2178,
      "##ory": 2179,
      "##own": 2180,
      "della": 2181,
      "Amer": 2182,
      "pour": 2183,
      "##olle": 2184,
      "Be": 2185,
      "##lin": 2186,
      "pe": 2187,
      "man": 2188,
      "##ve": 2189,
      "New": 2190,
      "ag": 2191,
      "##ave": 2192,
      "son": 2193,
      "##kt": 2194,
      "##tre": 2195,
      "##ica": 2196,
      "Or": 2197,
      "had": 2198,
      "##itt": 2199,
      "has": 2200,
      "##ger": 2201,
      "##ther": 2202,
      "##ina": 2203,
      "##her": 2204,
      "##emb": 2205,
      "##der": 2206,
      "16": 2207,
      "first": 2208,
      "si": 2209,
      "##och": 2210,
      "dis": 2211,
      "##fter": 2212,
      "193": 2213,
      "Ver": 2214,
      "##ates": 2215,
      "##atur": 2216,
      "##ember": 2217,
      "##oss": 2218,
      "da": 2219,
      "fin": 2220,
      "cent": 2221,
      "Ex": 2222,
      "##ican": 2223,
      "##ux": 2224,
      "sch": 2225,
      "##vel": 2226,
      "##ose": 2227,
      "##ack": 2228,
      "##wo": 2229,
      "##int": 2230,
      "##ferences": 2231,
      "15": 2232,
      "her": 2233,
      "##old": 2234,
      "Sh": 2235,
      "##ool": 2236,
      "##ball": 2237,
      "##ient": 2238,
      "References": 2239,
      "##ime": 2240,
      "##uss": 2241,
      "##als": 2242,
      "eine": 2243,
      "##form": 2244,
      "##ren": 2245,
      "mar": 2246,
      "##ton": 2247,
      "##ree": 2248,
      "me": 2249,
      "##ited": 2250,
      "Univers": 2251,
      "##ced": 2252,
      "##vent": 2253,
      "##men": 2254,
      "##port": 2255,
      "##ère": 2256,
      "sec": 2257,
      "Te": 2258,
      "##ram": 2259,
      "ré": 2260,
      "reg": 2261,
      "##urs": 2262,
      "sich": 2263,
      "film": 2264,
      "##ohn": 2265,
      "##olit": 2266,
      "year": 2267,
      "min": 2268,
      "##ople": 2269,
      "cons": 2270,
      "##ail": 2271,
      "##oot": 2272,
      "##ste": 2273,
      "us": 2274,
      "##uch": 2275,
      "##uf": 2276,
      "##rim": 2277,
      "their": 2278,
      "but": 2279,
      "##ische": 2280,
      "off": 2281,
      "its": 2282,
      "##rand": 2283,
      "Pr": 2284,
      "10": 2285,
      "ind": 2286,
      "##hed": 2287,
      "##icht": 2288,
      "##esch": 2289,
      "qui": 2290,
      "who": 2291,
      "ann": 2292,
      "##wn": 2293,
      "##ward": 2294,
      "192": 2295,
      "##elle": 2296,
      "##ograph": 2297,
      "##ral": 2298,
      "Car": 2299,
      "##iet": 2300,
      "##ick": 2301,
      "##ener": 2302,
      "Am": 2303,
      "American": 2304,
      "##urn": 2305,
      "one": 2306,
      "##ès": 2307,
      "##ings": 2308,
      "##ister": 2309,
      "##ase": 2310,
      "##outh": 2311,
      "##able": 2312,
      "incl": 2313,
      "##rib": 2314,
      "Ge": 2315,
      "12": 2316,
      "##ben": 2317,
      "##ade": 2318,
      "##une": 2319,
      "pub": 2320,
      "aut": 2321,
      "##up": 2322,
      "##ock": 2323,
      "##inc": 2324,
      "191": 2325,
      "att": 2326,
      "##tem": 2327,
      "##ev": 2328,
      "##ace": 2329,
      "##inn": 2330,
      "##ano": 2331,
      "##ident": 2332,
      "Ab": 2333,
      "inter": 2334,
      "##ision": 2335,
      "ass": 2336,
      "##za": 2337,
      "##itu": 2338,
      "Ind": 2339,
      "##gen": 2340,
      "Sc": 2341,
      "##ques": 2342,
      "##rie": 2343,
      "##man": 2344,
      "Jahr": 2345,
      "po": 2346,
      "mus": 2347,
      "acc": 2348,
      "##ould": 2349,
      "act": 2350,
      "Ma": 2351,
      "ma": 2352,
      "##orth": 2353,
      "includ": 2354,
      "##ler": 2355,
      "##ific": 2356,
      "Ph": 2357,
      "##ron": 2358,
      "serv": 2359,
      "##ati": 2360,
      "##scha": 2361,
      "On": 2362,
      "##ungen": 2363,
      "ét": 2364,
      "es": 2365,
      "##ait": 2366,
      "Mus": 2367,
      "Ein": 2368,
      "##ari": 2369,
      "##hip": 2370,
      "##ité": 2371,
      "##emp": 2372,
      "have": 2373,
      "sa": 2374,
      "two": 2375,
      "##ole": 2376,
      "Me": 2377,
      "bec": 2378,
      "##els": 2379,
      "this": 2380,
      "produ": 2381,
      "##anc": 2382,
      "##ics": 2383,
      "##be": 2384,
      "##gl": 2385,
      "##ased": 2386,
      "una": 2387,
      "##ven": 2388,
      "##pe": 2389,
      "##amil": 2390,
      "ent": 2391,
      "sein": 2392,
      "##igen": 2393,
      "14": 2394,
      "##urg": 2395,
      "##ird": 2396,
      "que": 2397,
      "ele": 2398,
      "Der": 2399,
      "##rat": 2400,
      "lin": 2401,
      "##ely": 2402,
      "##ict": 2403,
      "##its": 2404,
      "Reg": 2405,
      "##bum": 2406,
      "nach": 2407,
      "loc": 2408,
      "car": 2409,
      "11": 2410,
      "##gan": 2411,
      "##tt": 2412,
      "13": 2413,
      "El": 2414,
      "##ois": 2415,
      "Qu": 2416,
      "so": 2417,
      "avec": 2418,
      "##ood": 2419,
      "bis": 2420,
      "##orld": 2421,
      "##red": 2422,
      "##ette": 2423,
      "form": 2424,
      "ser": 2425,
      "been": 2426,
      "##utsch": 2427,
      "Cl": 2428,
      "##ico": 2429,
      "##olo": 2430,
      "##act": 2431,
      "Ad": 2432,
      "Ber": 2433,
      "Con": 2434,
      "auch": 2435,
      "##way": 2436,
      "##oth": 2437,
      "vers": 2438,
      "pres": 2439,
      "##ats": 2440,
      "##ents": 2441,
      "##ough": 2442,
      "art": 2443,
      "##ames": 2444,
      "##oci": 2445,
      "out": 2446,
      "##ys": 2447,
      "after": 2448,
      "ret": 2449,
      "##ges": 2450,
      "##yst": 2451,
      "dire": 2452,
      "##iste": 2453,
      "up": 2454,
      "##urop": 2455,
      "plus": 2456,
      "##any": 2457,
      "##ene": 2458,
      "##omm": 2459,
      "As": 2460,
      "##air": 2461,
      "##ui": 2462,
      "##alt": 2463,
      "Is": 2464,
      "##ury": 2465,
      "dist": 2466,
      "For": 2467,
      "University": 2468,
      "##ori": 2469,
      "co": 2470,
      "##ées": 2471,
      "ge": 2472,
      "##co": 2473,
      "bei": 2474,
      "##ters": 2475,
      "Br": 2476,
      "##én": 2477,
      "ou": 2478,
      "##ilit": 2479,
      "##ner": 2480,
      "bet": 2481,
      "Fl": 2482,
      "##ince": 2483,
      "second": 2484,
      "United": 2485,
      "John": 2486,
      "über": 2487,
      "over": 2488,
      "##illa": 2489,
      "##erson": 2490,
      "##ished": 2491,
      "##ix": 2492,
      "Chr": 2493,
      "non": 2494,
      "##ober": 2495,
      "##ät": 2496,
      "Gu": 2497,
      "exp": 2498,
      "##ör": 2499,
      "##etz": 2500,
      "new": 2501,
      "stud": 2502,
      "##ungs": 2503,
      "ac": 2504,
      "Wh": 2505,
      "##ischer": 2506,
      "sie": 2507,
      "Les": 2508,
      "##yn": 2509,
      "inc": 2510,
      "##ante": 2511,
      "col": 2512,
      "mod": 2513,
      "##ott": 2514,
      "##ps": 2515,
      "##ootball": 2516,
      "##min": 2517,
      "other": 2518,
      "ed": 2519,
      "##ants": 2520,
      "people": 2521,
      "Hist": 2522,
      "##ouse": 2523,
      "she": 2524,
      "##ism": 2525,
      "time": 2526,
      "##aint": 2527,
      "##ente": 2528,
      "gu": 2529,
      "##let": 2530,
      "bu": 2531,
      "int": 2532,
      "they": 2533,
      "Her": 2534,
      "fe": 2535,
      "grou": 2536,
      "2010": 2537,
      "##amb": 2538,
      "##ason": 2539,
      "##lie": 2540,
      "Im": 2541,
      "pop": 2542,
      "##elt": 2543,
      "##azione": 2544,
      "sub": 2545,
      "##par": 2546,
      "##iter": 2547,
      "##ution": 2548,
      "into": 2549,
      "dal": 2550,
      "links": 2551,
      "##til": 2552,
      "can": 2553,
      "##rich": 2554,
      "##ash": 2555,
      "##ake": 2556,
      "we": 2557,
      "Jan": 2558,
      "dell": 2559,
      "ph": 2560,
      "Bar": 2561,
      "work": 2562,
      "##ternal": 2563,
      "Ne": 2564,
      "##eter": 2565,
      "National": 2566,
      "##ige": 2567,
      "##ino": 2568,
      "Pl": 2569,
      "Wil": 2570,
      "##ress": 2571,
      "Ste": 2572,
      "##ét": 2573,
      "##fe": 2574,
      "##än": 2575,
      "zum": 2576,
      "190": 2577,
      "Comm": 2578,
      "##éd": 2579,
      "##ank": 2580,
      "##ists": 2581,
      "##ün": 2582,
      "Film": 2583,
      "II": 2584,
      "album": 2585,
      "Colle": 2586,
      "ob": 2587,
      "##urch": 2588,
      "##gel": 2589,
      "hist": 2590,
      "prog": 2591,
      "prov": 2592,
      "kn": 2593,
      "Tr": 2594,
      "##omb": 2595,
      "##ote": 2596,
      "zur": 2597,
      "Jul": 2598,
      "einer": 2599,
      "##vol": 2600,
      "US": 2601,
      "##ret": 2602,
      "##itz": 2603,
      "##éc": 2604,
      "War": 2605,
      "num": 2606,
      "trans": 2607,
      "##ai": 2608,
      "##app": 2609,
      "##fl": 2610,
      "cap": 2611,
      "Man": 2612,
      "um": 2613,
      "##inal": 2614,
      "##ici": 2615,
      "2011": 2616,
      "Aust": 2617,
      "beg": 2618,
      "##oir": 2619,
      "##ative": 2620,
      "2008": 2621,
      "##ium": 2622,
      "Land": 2623,
      "spec": 2624,
      "Aug": 2625,
      "orig": 2626,
      "Je": 2627,
      "##chen": 2628,
      "##aw": 2629,
      "polit": 2630,
      "2009": 2631,
      "##ife": 2632,
      "##aut": 2633,
      "##anz": 2634,
      "##of": 2635,
      "External": 2636,
      "el": 2637,
      "Count": 2638,
      "##ular": 2639,
      "##ioni": 2640,
      "##berg": 2641,
      "##schaft": 2642,
      "under": 2643,
      "##iche": 2644,
      "Pe": 2645,
      "durch": 2646,
      "2012": 2647,
      "##ito": 2648,
      "##ional": 2649,
      "##iver": 2650,
      "##overn": 2651,
      "Ed": 2652,
      "##agn": 2653,
      "rem": 2654,
      "##eld": 2655,
      "diff": 2656,
      "2007": 2657,
      "##abl": 2658,
      "##eme": 2659,
      "Europ": 2660,
      "ins": 2661,
      "##ster": 2662,
      "Can": 2663,
      "##ym": 2664,
      "team": 2665,
      "Nov": 2666,
      "bo": 2667,
      "him": 2668,
      "end": 2669,
      "fl": 2670,
      "Bl": 2671,
      "##rough": 2672,
      "2006": 2673,
      "##ono": 2674,
      "We": 2675,
      "##är": 2676,
      "bef": 2677,
      "189": 2678,
      "And": 2679,
      "Art": 2680,
      "##chn": 2681,
      "imp": 2682,
      "She": 2683,
      "##ternational": 2684,
      "##ald": 2685,
      "##ove": 2686,
      "Not": 2687,
      "prim": 2688,
      "##uc": 2689,
      "##zione": 2690,
      "##velop": 2691,
      "Tra": 2692,
      "##lt": 2693,
      "##ays": 2694,
      "##ars": 2695,
      "##oman": 2696,
      "This": 2697,
      "##uis": 2698,
      "med": 2699,
      "##ual": 2700,
      "2013": 2701,
      "unter": 2702,
      "when": 2703,
      "##reat": 2704,
      "##aire": 2705,
      "##fess": 2706,
      "sing": 2707,
      "2014": 2708,
      "##iment": 2709,
      "##ae": 2710,
      "more": 2711,
      "August": 2712,
      "Apr": 2713,
      "##ley": 2714,
      "##gi": 2715,
      "##ried": 2716,
      "sont": 2717,
      "years": 2718,
      "##ière": 2719,
      "Col": 2720,
      "At": 2721,
      "World": 2722,
      "##yl": 2723,
      "class": 2724,
      "dei": 2725,
      "##ili": 2726,
      "Char": 2727,
      "##iving": 2728,
      "born": 2729,
      "mon": 2730,
      "##ark": 2731,
      "Mit": 2732,
      "##ute": 2733,
      "most": 2734,
      "Ass": 2735,
      "Das": 2736,
      "cor": 2737,
      "Brit": 2738,
      "##omin": 2739,
      "##rid": 2740,
      "##dition": 2741,
      "##ode": 2742,
      "##aux": 2743,
      "hat": 2744,
      "##ollow": 2745,
      "const": 2746,
      "##ptem": 2747,
      "South": 2748,
      "where": 2749,
      "2015": 2750,
      "would": 2751,
      "York": 2752,
      "States": 2753,
      "##ma": 2754,
      "##ague": 2755,
      "do": 2756,
      "##ween": 2757,
      "##rag": 2758,
      "##ield": 2759,
      "##adt": 2760,
      "players": 2761,
      "Aus": 2762,
      "Web": 2763,
      "football": 2764,
      "ter": 2765,
      "prem": 2766,
      "##ures": 2767,
      "##vers": 2768,
      "only": 2769,
      "found": 2770,
      "Su": 2771,
      "gra": 2772,
      "##rict": 2773,
      "##ues": 2774,
      "char": 2775,
      "again": 2776,
      "##ep": 2777,
      "##ane": 2778,
      "mat": 2779,
      "during": 2780,
      "vor": 2781,
      "##gli": 2782,
      "op": 2783,
      "##cted": 2784,
      "##ets": 2785,
      "##ré": 2786,
      "##ende": 2787,
      "##af": 2788,
      "Germ": 2789,
      "##icip": 2790,
      "##ita": 2791,
      "##over": 2792,
      "Nach": 2793,
      "2005": 2794,
      "Cent": 2795,
      "Har": 2796,
      "##ystem": 2797,
      "21": 2798,
      "##hn": 2799,
      "gi": 2800,
      "Christ": 2801,
      "dep": 2802,
      "25": 2803,
      "##ives": 2804,
      "2016": 2805,
      "Mon": 2806,
      "met": 2807,
      "aux": 2808,
      "188": 2809,
      "##wer": 2810,
      "Cal": 2811,
      "Ital": 2812,
      "##egen": 2813,
      "tro": 2814,
      "organ": 2815,
      "##änd": 2816,
      "##sten": 2817,
      "##eln": 2818,
      "ear": 2819,
      "##ours": 2820,
      "##reich": 2821,
      "##ci": 2822,
      "##iques": 2823,
      "##ön": 2824,
      "Pa": 2825,
      "##orts": 2826,
      "Geor": 2827,
      "high": 2828,
      "##iens": 2829,
      "May": 2830,
      "wer": 2831,
      "2000": 2832,
      "between": 2833,
      "Pol": 2834,
      "pass": 2835,
      "about": 2836,
      "##cht": 2837,
      "County": 2838,
      "fran": 2839,
      "##ower": 2840,
      "Min": 2841,
      "##ission": 2842,
      "##ühr": 2843,
      "Bo": 2844,
      "commun": 2845,
      "##iert": 2846,
      "sign": 2847,
      "##irc": 2848,
      "##ales": 2849,
      "dec": 2850,
      "##ara": 2851,
      "##geb": 2852,
      "000": 2853,
      "Comp": 2854,
      "einem": 2855,
      "##lem": 2856,
      "##lichen": 2857,
      "##omen": 2858,
      "West": 2859,
      "oper": 2860,
      "tit": 2861,
      "##rü": 2862,
      "##irth": 2863,
      "30": 2864,
      "three": 2865,
      "##ali": 2866,
      "Septem": 2867,
      "##fér": 2868,
      "eff": 2869,
      "later": 2870,
      "##son": 2871,
      "supp": 2872,
      "North": 2873,
      "France": 2874,
      "##ities": 2875,
      "2004": 2876,
      "come": 2877,
      "##ana": 2878,
      "nicht": 2879,
      "sind": 2880,
      "September": 2881,
      "##eng": 2882,
      "##iew": 2883,
      "bas": 2884,
      "through": 2885,
      "##ini": 2886,
      "famil": 2887,
      "rele": 2888,
      "record": 2889,
      "Janu": 2890,
      "Med": 2891,
      "ce": 2892,
      "season": 2893,
      "lo": 2894,
      "Gra": 2895,
      "##ments": 2896,
      "Ser": 2897,
      "werden": 2898,
      "lar": 2899,
      "dies": 2900,
      "##ating": 2901,
      "made": 2902,
      "used": 2903,
      "##weise": 2904,
      "writ": 2905,
      "##ti": 2906,
      "##burg": 2907,
      "bl": 2908,
      "alla": 2909,
      "##sk": 2910,
      "School": 2911,
      "there": 2912,
      "2017": 2913,
      "##ument": 2914,
      "##lex": 2915,
      "known": 2916,
      "##ior": 2917,
      "inst": 2918,
      "century": 2919,
      "##amm": 2920,
      "succ": 2921,
      "pi": 2922,
      "San": 2923,
      "##atz": 2924,
      "Champ": 2925,
      "##ura": 2926,
      "##ahl": 2927,
      "All": 2928,
      "school": 2929,
      "occ": 2930,
      "Bro": 2931,
      "Sie": 2932,
      "April": 2933,
      "Austral": 2934,
      "##iti": 2935,
      "such": 2936,
      "187": 2937,
      "##ider": 2938,
      "gener": 2939,
      "##ità": 2940,
      "##vi": 2941,
      "##ines": 2942,
      "##enden": 2943,
      "vol": 2944,
      "wird": 2945,
      "##con": 2946,
      "follow": 2947,
      "##oph": 2948,
      "##ulation": 2949,
      "then": 2950,
      "##hal": 2951,
      "##ctor": 2952,
      "gen": 2953,
      "##ull": 2954,
      "Pre": 2955,
      "arr": 2956,
      "div": 2957,
      "186": 2958,
      "birth": 2959,
      "##ando": 2960,
      "##elf": 2961,
      "été": 2962,
      "##ourn": 2963,
      "due": 2964,
      "##duc": 2965,
      "##ket": 2966,
      "rep": 2967,
      "##pis": 2968,
      "##ages": 2969,
      "##by": 2970,
      "##ived": 2971,
      "##pl": 2972,
      "##beit": 2973,
      "November": 2974,
      "them": 2975,
      "##ule": 2976,
      "Kar": 2977,
      "##ilt": 2978,
      "##ital": 2979,
      "grand": 2980,
      "pol": 2981,
      "##eder": 2982,
      "no": 2983,
      "prop": 2984,
      "##ek": 2985,
      "lie": 2986,
      "long": 2987,
      "##ches": 2988,
      "than": 2989,
      "repr": 2990,
      "conc": 2991,
      "##uß": 2992,
      "##ike": 2993,
      "Rec": 2994,
      "colle": 2995,
      "oder": 2996,
      "Per": 2997,
      "cre": 2998,
      "2018": 2999,
      "##cy": 3000,
      "aff": 3001,
      "Saint": 3002,
      "Dec": 3003,
      "##xt": 3004,
      "##bor": 3005,
      "2003": 3006,
      "desc": 3007,
      "##olg": 3008,
      "Co": 3009,
      "##na": 3010,
      "##ption": 3011,
      "deux": 3012,
      "port": 3013,
      "Mal": 3014,
      "24": 3015,
      "##itions": 3016,
      "Paris": 3017,
      "##hen": 3018,
      "Gre": 3019,
      "some": 3020,
      "##ichte": 3021,
      "camp": 3022,
      "Af": 3023,
      "##bre": 3024,
      "##ains": 3025,
      "Geb": 3026,
      "##enz": 3027,
      "##ross": 3028,
      "call": 3029,
      "##ather": 3030,
      "##ieder": 3031,
      "mov": 3032,
      "##lo": 3033,
      "##bert": 3034,
      "##ola": 3035,
      "lead": 3036,
      "##liche": 3037,
      "##ature": 3038,
      "##ange": 3039,
      "became": 3040,
      "##ject": 3041,
      "four": 3042,
      "memb": 3043,
      "Part": 3044,
      "Pal": 3045,
      "2002": 3046,
      "##rad": 3047,
      "establ": 3048,
      "id": 3049,
      "mini": 3050,
      "##gest": 3051,
      "Dist": 3052,
      "Canad": 3053,
      "song": 3054,
      "##aff": 3055,
      "Auf": 3056,
      "##0s": 3057,
      "einen": 3058,
      "zw": 3059,
      "2001": 3060,
      "Deutsch": 3061,
      "##çais": 3062,
      "##fin": 3063,
      "including": 3064,
      "Europe": 3065,
      "##ology": 3066,
      "22": 3067,
      "##rop": 3068,
      "fu": 3069,
      "##esse": 3070,
      "##osition": 3071,
      "##incip": 3072,
      "##omp": 3073,
      "##yp": 3074,
      "##ible": 3075,
      "##ival": 3076,
      "##ices": 3077,
      "Cor": 3078,
      "##ella": 3079,
      "Pla": 3080,
      "series": 3081,
      "leg": 3082,
      "##hem": 3083,
      "##ka": 3084,
      "##other": 3085,
      "##lymp": 3086,
      "##rent": 3087,
      "align": 3088,
      "Feb": 3089,
      "##owe": 3090,
      "km": 3091,
      "##aison": 3092,
      "British": 3093,
      "IS": 3094,
      "being": 3095,
      "##jor": 3096,
      "nella": 3097,
      "##ling": 3098,
      "back": 3099,
      "post": 3100,
      "Des": 3101,
      "Dav": 3102,
      "well": 3103,
      "##ude": 3104,
      "ke": 3105,
      "inv": 3106,
      "bel": 3107,
      "##eth": 3108,
      "count": 3109,
      "lang": 3110,
      "govern": 3111,
      "term": 3112,
      "music": 3113,
      "villa": 3114,
      "##iger": 3115,
      "Febru": 3116,
      "##iano": 3117,
      "##ker": 3118,
      "tel": 3119,
      "##use": 3120,
      "déc": 3121,
      "contin": 3122,
      "##ück": 3123,
      "##izz": 3124,
      "public": 3125,
      "delle": 3126,
      "City": 3127,
      "event": 3128,
      "ha": 3129,
      "Bi": 3130,
      "##row": 3131,
      "Lond": 3132,
      "entre": 3133,
      "##amed": 3134,
      "##ello": 3135,
      "Award": 3136,
      "League": 3137,
      "Willi": 3138,
      "23": 3139,
      "##oire": 3140,
      "Categoria": 3141,
      "pas": 3142,
      "##ax": 3143,
      "##ris": 3144,
      "poss": 3145,
      "##férences": 3146,
      "Notes": 3147,
      "##ahn": 3148,
      "See": 3149,
      "##rupp": 3150,
      "##pub": 3151,
      "##ographie": 3152,
      "After": 3153,
      "disc": 3154,
      "##cher": 3155,
      "##ctions": 3156,
      "##va": 3157,
      "##ena": 3158,
      "français": 3159,
      "sim": 3160,
      "success": 3161,
      "##stell": 3162,
      "March": 3163,
      "##ken": 3164,
      "pers": 3165,
      "Soc": 3166,
      "##amente": 3167,
      "Engl": 3168,
      "Jap": 3169,
      "##si": 3170,
      "##ator": 3171,
      "bro": 3172,
      "##my": 3173,
      "##umb": 3174,
      "death": 3175,
      "offic": 3176,
      "##lag": 3177,
      "##ved": 3178,
      "sel": 3179,
      "club": 3180,
      "William": 3181,
      "##sh": 3182,
      "Fr": 3183,
      "place": 3184,
      "##isc": 3185,
      "go": 3186,
      "Russ": 3187,
      "Oct": 3188,
      "1999": 3189,
      "show": 3190,
      "own": 3191,
      "comme": 3192,
      "against": 3193,
      "wurden": 3194,
      "##iè": 3195,
      "develop": 3196,
      "quest": 3197,
      "bes": 3198,
      "Mc": 3199,
      "Einz": 3200,
      "##ähr": 3201,
      "Sec": 3202,
      "may": 3203,
      "program": 3204,
      "soc": 3205,
      "2019": 3206,
      "Eng": 3207,
      "Mich": 3208,
      "##ograf": 3209,
      "many": 3210,
      "185": 3211,
      "mag": 3212,
      "Gl": 3213,
      "ess": 3214,
      "before": 3215,
      "temp": 3216,
      "state": 3217,
      "rece": 3218,
      "rest": 3219,
      "##ils": 3220,
      "##ora": 3221,
      "##ero": 3222,
      "Weblin": 3223,
      "Lou": 3224,
      "Fre": 3225,
      "##ause": 3226,
      "design": 3227,
      "Res": 3228,
      "cour": 3229,
      "Weblinks": 3230,
      "Ro": 3231,
      "##utt": 3232,
      "ses": 3233,
      "##lement": 3234,
      "##ford": 3235,
      "##ista": 3236,
      "while": 3237,
      "##hm": 3238,
      "King": 3239,
      "##gio": 3240,
      "##auf": 3241,
      "##owever": 3242,
      "princip": 3243,
      "appear": 3244,
      "Stadt": 3245,
      "##orf": 3246,
      "##ander": 3247,
      "##uk": 3248,
      "##areer": 3249,
      "##ca": 3250,
      "##iers": 3251,
      "Air": 3252,
      "ste": 3253,
      "arch": 3254,
      "build": 3255,
      "##issance": 3256,
      "resp": 3257,
      "##arm": 3258,
      "##keit": 3259,
      "best": 3260,
      "Paul": 3261,
      "##alis": 3262,
      "family": 3263,
      "##oren": 3264,
      "area": 3265,
      "##ierte": 3266,
      "100": 3267,
      "##adem": 3268,
      "##hel": 3269,
      "name": 3270,
      "##bo": 3271,
      "ro": 3272,
      "##imes": 3273,
      "number": 3274,
      "26": 3275,
      "esp": 3276,
      "Off": 3277,
      "Zeit": 3278,
      "both": 3279,
      "Gener": 3280,
      "più": 3281,
      "##ieler": 3282,
      "##ized": 3283,
      "until": 3284,
      "1998": 3285,
      "English": 3286,
      "##orte": 3287,
      "October": 3288,
      "##ired": 3289,
      "Nord": 3290,
      "situ": 3291,
      "former": 3292,
      "Gi": 3293,
      "##oria": 3294,
      "Sw": 3295,
      "##ham": 3296,
      "em": 3297,
      "Dur": 3298,
      "profess": 3299,
      "deutsch": 3300,
      "national": 3301,
      "perform": 3302,
      "Aut": 3303,
      "Pri": 3304,
      "Rober": 3305,
      "Jean": 3306,
      "##ém": 3307,
      "dass": 3308,
      "eng": 3309,
      "##oint": 3310,
      "Inst": 3311,
      "##roß": 3312,
      "State": 3313,
      "suo": 3314,
      "##BN": 3315,
      "##ony": 3316,
      "band": 3317,
      "January": 3318,
      "##ience": 3319,
      "births": 3320,
      "Gesch": 3321,
      "based": 3322,
      "present": 3323,
      "##IT": 3324,
      "28": 3325,
      "Es": 3326,
      "Kir": 3327,
      "Stud": 3328,
      "##hl": 3329,
      "##get": 3330,
      "will": 3331,
      "##yle": 3332,
      "June": 3333,
      "fac": 3334,
      "##ender": 3335,
      "Ac": 3336,
      "##sen": 3337,
      "Val": 3338,
      "27": 3339,
      "##press": 3340,
      "Unter": 3341,
      "Bas": 3342,
      "sm": 3343,
      "Port": 3344,
      "mond": 3345,
      "##éri": 3346,
      "##ht": 3347,
      "##ionship": 3348,
      "##reis": 3349,
      "Hol": 3350,
      "Mart": 3351,
      "Olymp": 3352,
      "disp": 3353,
      "##él": 3354,
      "##érie": 3355,
      "released": 3356,
      "Mann": 3357,
      "##uen": 3358,
      "main": 3359,
      "Japan": 3360,
      "184": 3361,
      "played": 3362,
      "Em": 3363,
      "cur": 3364,
      "stat": 3365,
      "conf": 3366,
      "ISBN": 3367,
      "##teur": 3368,
      "elle": 3369,
      "vo": 3370,
      "Berlin": 3371,
      "##eren": 3372,
      "Mor": 3373,
      "##emein": 3374,
      "##ney": 3375,
      "sow": 3376,
      "Arch": 3377,
      "July": 3378,
      "sono": 3379,
      "Bel": 3380,
      "##ract": 3381,
      "Sal": 3382,
      "Roy": 3383,
      "ihr": 3384,
      "##lack": 3385,
      "##ario": 3386,
      "run": 3387,
      "##ume": 3388,
      "system": 3389,
      "##üd": 3390,
      "##oz": 3391,
      "International": 3392,
      "milit": 3393,
      "##ius": 3394,
      "##sche": 3395,
      "London": 3396,
      "##ined": 3397,
      "hab": 3398,
      "##ration": 3399,
      "##ring": 3400,
      "Ir": 3401,
      "Mont": 3402,
      "films": 3403,
      "gr": 3404,
      "import": 3405,
      "##ei": 3406,
      "##off": 3407,
      "1996": 3408,
      "German": 3409,
      "##era": 3410,
      "##veral": 3411,
      "Dan": 3412,
      "##led": 3413,
      "left": 3414,
      "vis": 3415,
      "##rund": 3416,
      "1997": 3417,
      "contr": 3418,
      "##ural": 3419,
      "game": 3420,
      "##raft": 3421,
      "vom": 3422,
      "##mann": 3423,
      "##ense": 3424,
      "fem": 3425,
      "Pat": 3426,
      "anche": 3427,
      "##oute": 3428,
      "##conom": 3429,
      "##ief": 3430,
      "##ink": 3431,
      "called": 3432,
      "open": 3433,
      "Vol": 3434,
      "##aster": 3435,
      "Ag": 3436,
      "##part": 3437,
      "cost": 3438,
      "##stand": 3439,
      "alle": 3440,
      "##enne": 3441,
      "December": 3442,
      "##col": 3443,
      "weit": 3444,
      "Phil": 3445,
      "High": 3446,
      "##asse": 3447,
      "##ble": 3448,
      "sol": 3449,
      "Bra": 3450,
      "His": 3451,
      "##ibli": 3452,
      "1990": 3453,
      "line": 3454,
      "##ords": 3455,
      "right": 3456,
      "##ni": 3457,
      "##ula": 3458,
      "##anti": 3459,
      "##rei": 3460,
      "won": 3461,
      "dev": 3462,
      "set": 3463,
      "local": 3464,
      "##ography": 3465,
      "aussi": 3466,
      "##ociation": 3467,
      "prom": 3468,
      "Frank": 3469,
      "group": 3470,
      "population": 3471,
      "##hund": 3472,
      "##tsch": 3473,
      "##opp": 3474,
      "Na": 3475,
      "Grand": 3476,
      "anc": 3477,
      "##iff": 3478,
      "Rich": 3479,
      "life": 3480,
      "##view": 3481,
      "fut": 3482,
      "Gr": 3483,
      "Liter": 3484,
      "##asc": 3485,
      "##uz": 3486,
      "##ones": 3487,
      "##erg": 3488,
      "##evision": 3489,
      "##20": 3490,
      "##ful": 3491,
      "##uel": 3492,
      "29": 3493,
      "##osed": 3494,
      "History": 3495,
      "alt": 3496,
      "##alement": 3497,
      "Div": 3498,
      "##olf": 3499,
      "##yd": 3500,
      "Stre": 3501,
      "fam": 3502,
      "pat": 3503,
      "##amenti": 3504,
      "1995": 3505,
      "##ael": 3506,
      "No": 3507,
      "inf": 3508,
      "Pres": 3509,
      "##iana": 3510,
      "##uto": 3511,
      "constru": 3512,
      "##uer": 3513,
      "##gt": 3514,
      "##zeich": 3515,
      "##aten": 3516,
      "##reg": 3517,
      "##ves": 3518,
      "##iker": 3519,
      "nov": 3520,
      "##vert": 3521,
      "##orks": 3522,
      "##II": 3523,
      "wie": 3524,
      "prés": 3525,
      "Jahrhund": 3526,
      "##esent": 3527,
      "land": 3528,
      "1994": 3529,
      "list": 3530,
      "##tet": 3531,
      "##ained": 3532,
      "qual": 3533,
      "##arn": 3534,
      "College": 3535,
      "city": 3536,
      "person": 3537,
      "##wei": 3538,
      "##uni": 3539,
      "cas": 3540,
      "town": 3541,
      "##iod": 3542,
      "Cap": 3543,
      "##aking": 3544,
      "ital": 3545,
      "##but": 3546,
      "Einzeln": 3547,
      "##ually": 3548,
      "##adio": 3549,
      "##cer": 3550,
      "emp": 3551,
      "##esso": 3552,
      "##mar": 3553,
      "##iva": 3554,
      "1992": 3555,
      "Einzelnach": 3556,
      "ris": 3557,
      "##wa": 3558,
      "##minist": 3559,
      "Einzelnachweise": 3560,
      "Thom": 3561,
      "##illion": 3562,
      "##enk": 3563,
      "village": 3564,
      "##eck": 3565,
      "##key": 3566,
      "Ré": 3567,
      "##eur": 3568,
      "arm": 3569,
      "dr": 3570,
      "same": 3571,
      "##van": 3572,
      "val": 3573,
      "publ": 3574,
      "##ides": 3575,
      "sul": 3576,
      "mais": 3577,
      "apr": 3578,
      "champ": 3579,
      "near": 3580,
      "fait": 3581,
      "##ama": 3582,
      "start": 3583,
      "##uck": 3584,
      "north": 3585,
      "Roman": 3586,
      "several": 3587,
      "##utz": 3588,
      "##oul": 3589,
      "##ility": 3590,
      "Ét": 3591,
      "child": 3592,
      "##iety": 3593,
      "183": 3594,
      "##ington": 3595,
      "gew": 3596,
      "circ": 3597,
      "use": 3598,
      "##ards": 3599,
      "##iven": 3600,
      "era": 3601,
      "##EIT": 3602,
      "##rench": 3603,
      "gli": 3604,
      "parte": 3605,
      "ext": 3606,
      "##zo": 3607,
      "cult": 3608,
      "major": 3609,
      "partic": 3610,
      "31": 3611,
      "50": 3612,
      "early": 3613,
      "February": 3614,
      "éta": 3615,
      "##bar": 3616,
      "stand": 3617,
      "##iale": 3618,
      "return": 3619,
      "Polit": 3620,
      "##urt": 3621,
      "##öl": 3622,
      "##ournal": 3623,
      "Hen": 3624,
      "They": 3625,
      "##ha": 3626,
      "men": 3627,
      "éc": 3628,
      "##ften": 3629,
      "1993": 3630,
      "French": 3631,
      "General": 3632,
      "##no": 3633,
      "##chs": 3634,
      "People": 3635,
      "##ects": 3636,
      "lui": 3637,
      "##inter": 3638,
      "since": 3639,
      "Wal": 3640,
      "##oma": 3641,
      "Vor": 3642,
      "##eum": 3643,
      "##hor": 3644,
      "seg": 3645,
      "Pub": 3646,
      "nom": 3647,
      "south": 3648,
      "Dem": 3649,
      "Jac": 3650,
      "Mad": 3651,
      "##enza": 3652,
      "##rodu": 3653,
      "##ona": 3654,
      "##opo": 3655,
      "##atter": 3656,
      "##ahre": 3657,
      "##ruct": 3658,
      "##ection": 3659,
      "head": 3660,
      "any": 3661,
      "##vis": 3662,
      "David": 3663,
      "following": 3664,
      "##ements": 3665,
      "Ter": 3666,
      "There": 3667,
      "##hol": 3668,
      "##quip": 3669,
      "##ison": 3670,
      "1991": 3671,
      "##ründ": 3672,
      "red": 3673,
      "Sm": 3674,
      "##ros": 3675,
      "##etti": 3676,
      "Afric": 3677,
      "ren": 3678,
      "station": 3679,
      "util": 3680,
      "career": 3681,
      "nur": 3682,
      "pri": 3683,
      "Mil": 3684,
      "Sa": 3685,
      "##elles": 3686,
      "these": 3687,
      "##ele": 3688,
      "sowie": 3689,
      "##round": 3690,
      "##iness": 3691,
      "##ani": 3692,
      "techn": 3693,
      "##enti": 3694,
      "ont": 3695,
      "Sk": 3696,
      "opp": 3697,
      "##hre": 3698,
      "Ob": 3699,
      "##oli": 3700,
      "##ême": 3701,
      "##haus": 3702,
      "##annt": 3703,
      "ref": 3704,
      "compet": 3705,
      "appro": 3706,
      "differ": 3707,
      "Nel": 3708,
      "histor": 3709,
      "proc": 3710,
      "seiner": 3711,
      "Repub": 3712,
      "##ided": 3713,
      "cou": 3714,
      "vi": 3715,
      "mehr": 3716,
      "TV": 3717,
      "##cept": 3718,
      "old": 3719,
      "Kl": 3720,
      "##zeit": 3721,
      "##osa": 3722,
      "End": 3723,
      "##endo": 3724,
      "support": 3725,
      "##cle": 3726,
      "str": 3727,
      "estern": 3728,
      "Ges": 3729,
      "##erd": 3730,
      "Robert": 3731,
      "ans": 3732,
      "Alt": 3733,
      "##ued": 3734,
      "Alex": 3735,
      "##ounc": 3736,
      "Band": 3737,
      "prob": 3738,
      "Mag": 3739,
      "##onne": 3740,
      "##ionn": 3741,
      "sous": 3742,
      "##oro": 3743,
      "bre": 3744,
      "##ima": 3745,
      "##iforn": 3746,
      "sua": 3747,
      "James": 3748,
      "vari": 3749,
      "##mente": 3750,
      "Louis": 3751,
      "##ended": 3752,
      "##ede": 3753,
      "##teil": 3754,
      "Cup": 3755,
      "crit": 3756,
      "Jahre": 3757,
      "Mer": 3758,
      "##ienne": 3759,
      "##heit": 3760,
      "Ear": 3761,
      "##ights": 3762,
      "Club": 3763,
      "Op": 3764,
      "##imm": 3765,
      "##por": 3766,
      "##ries": 3767,
      "##val": 3768,
      "Fin": 3769,
      "Prov": 3770,
      "##unk": 3771,
      "##chi": 3772,
      "House": 3773,
      "##ummer": 3774,
      "##estern": 3775,
      "##ternes": 3776,
      "##heim": 3777,
      "références": 3778,
      "##ducation": 3779,
      "##isation": 3780,
      "##raß": 3781,
      "named": 3782,
      "began": 3783,
      "##ville": 3784,
      "law": 3785,
      "fur": 3786,
      "##itar": 3787,
      "now": 3788,
      "hand": 3789,
      "Championship": 3790,
      "##rs": 3791,
      "international": 3792,
      "Park": 3793,
      "members": 3794,
      "government": 3795,
      "Ben": 3796,
      "##ologie": 3797,
      "##rä": 3798,
      "1989": 3799,
      "established": 3800,
      "dam": 3801,
      "Jose": 3802,
      "rég": 3803,
      "tot": 3804,
      "##ideo": 3805,
      "member": 3806,
      "##earch": 3807,
      "##ery": 3808,
      "featur": 3809,
      "je": 3810,
      "bus": 3811,
      "six": 3812,
      "located": 3813,
      "Tor": 3814,
      "##rew": 3815,
      "charac": 3816,
      "noch": 3817,
      "Person": 3818,
      "origin": 3819,
      "did": 3820,
      "Welt": 3821,
      "epis": 3822,
      "##eben": 3823,
      "George": 3824,
      "style": 3825,
      "along": 3826,
      "Colleg": 3827,
      "##ites": 3828,
      "Inter": 3829,
      "##unicip": 3830,
      "site": 3831,
      "Liens": 3832,
      "small": 3833,
      "##wick": 3834,
      "ment": 3835,
      "cette": 3836,
      "##ances": 3837,
      "##alth": 3838,
      "District": 3839,
      "1980": 3840,
      "esterni": 3841,
      "Fra": 3842,
      "Li": 3843,
      "##augh": 3844,
      "def": 3845,
      "held": 3846,
      "cin": 3847,
      "Jo": 3848,
      "##ago": 3849,
      "##iden": 3850,
      "each": 3851,
      "period": 3852,
      "seine": 3853,
      "##ida": 3854,
      "star": 3855,
      "fig": 3856,
      "house": 3857,
      "hum": 3858,
      "univers": 3859,
      "##omet": 3860,
      "##führ": 3861,
      "1988": 3862,
      "##issen": 3863,
      "fre": 3864,
      "final": 3865,
      "Collegamenti": 3866,
      "Ra": 3867,
      "Elle": 3868,
      "Histor": 3869,
      "describ": 3870,
      "##emeinde": 3871,
      "Bibli": 3872,
      "40": 3873,
      "Literatur": 3874,
      "##ira": 3875,
      "##lia": 3876,
      "##ox": 3877,
      "Best": 3878,
      "world": 3879,
      "##formation": 3880,
      "Schw": 3881,
      "181": 3882,
      "day": 3883,
      "##üt": 3884,
      "gegen": 3885,
      "Kon": 3886,
      "##ität": 3887,
      "Trans": 3888,
      "Living": 3889,
      "Charles": 3890,
      "##lung": 3891,
      "##agne": 3892,
      "##zen": 3893,
      "##mes": 3894,
      "##stein": 3895,
      "ant": 3896,
      "rac": 3897,
      "fond": 3898,
      "##ellen": 3899,
      "Dr": 3900,
      "comb": 3901,
      "Men": 3902,
      "##éric": 3903,
      "mot": 3904,
      "externes": 3905,
      "Red": 3906,
      "##anta": 3907,
      "Tur": 3908,
      "dar": 3909,
      "Tour": 3910,
      "single": 3911,
      "##zeichn": 3912,
      "home": 3913,
      "tour": 3914,
      "Acc": 3915,
      "hatte": 3916,
      "Franc": 3917,
      "##igne": 3918,
      "service": 3919,
      "zwei": 3920,
      "##tto": 3921,
      "Um": 3922,
      "squ": 3923,
      "##ridge": 3924,
      "dalla": 3925,
      "Sing": 3926,
      "##yr": 3927,
      "##hör": 3928,
      "River": 3929,
      "Teil": 3930,
      "nou": 3931,
      "##ize": 3932,
      "Californ": 3933,
      "##tes": 3934,
      "Ok": 3935,
      "Dies": 3936,
      "Association": 3937,
      "Mod": 3938,
      "Au": 3939,
      "activ": 3940,
      "top": 3941,
      "##erein": 3942,
      "##leich": 3943,
      "Bay": 3944,
      "ever": 3945,
      "gén": 3946,
      "air": 3947,
      "##gar": 3948,
      "##embre": 3949,
      "bar": 3950,
      "##aving": 3951,
      "##band": 3952,
      "##lands": 3953,
      "Don": 3954,
      "imm": 3955,
      "##ivo": 3956,
      "##ivil": 3957,
      "Mat": 3958,
      "##xim": 3959,
      "Sta": 3960,
      "##ließ": 3961,
      "##erie": 3962,
      "##ected": 3963,
      "##ily": 3964,
      "##ikan": 3965,
      "##epend": 3966,
      "particip": 3967,
      "ord": 3968,
      "built": 3969,
      "##alls": 3970,
      "##ows": 3971,
      "##ria": 3972,
      "##enb": 3973,
      "company": 3974,
      "eing": 3975,
      "cert": 3976,
      "Ze": 3977,
      "Bund": 3978,
      "Ele": 3979,
      "Cast": 3980,
      "Michael": 3981,
      "manag": 3982,
      "aber": 3983,
      "Fest": 3984,
      "took": 3985,
      "##line": 3986,
      "England": 3987,
      "##ints": 3988,
      "Hau": 3989,
      "##cri": 3990,
      "eines": 3991,
      "1987": 3992,
      "##icles": 3993,
      "Mac": 3994,
      "consider": 3995,
      "women": 3996,
      "li": 3997,
      "##ionale": 3998,
      "même": 3999,
      "down": 4000,
      "Met": 4001,
      "##piel": 4002,
      "television": 4003,
      "Famil": 4004,
      "complet": 4005,
      "Peter": 4006,
      "Canada": 4007,
      "##ij": 4008,
      "##iene": 4009,
      "iss": 4010,
      "##vir": 4011,
      "Act": 4012,
      "##oks": 4013,
      "Cour": 4014,
      "large": 4015,
      "Thomas": 4016,
      "Sam": 4017,
      "jo": 4018,
      "conn": 4019,
      "1986": 4020,
      "##ivid": 4021,
      "cui": 4022,
      "##uit": 4023,
      "##ateur": 4024,
      "##idd": 4025,
      "Ol": 4026,
      "sett": 4027,
      "Wer": 4028,
      "Camp": 4029,
      "##iner": 4030,
      "après": 4031,
      "sort": 4032,
      "##ently": 4033,
      "langu": 4034,
      "super": 4035,
      "Bre": 4036,
      "List": 4037,
      "##ops": 4038,
      "Fe": 4039,
      "cal": 4040,
      "enc": 4041,
      "##yer": 4042,
      "##ires": 4043,
      "could": 4044,
      "died": 4045,
      "##ER": 4046,
      "##ierung": 4047,
      "One": 4048,
      "##gesch": 4049,
      "ég": 4050,
      "1984": 4051,
      "##ored": 4052,
      "Angel": 4053,
      "around": 4054,
      "However": 4055,
      "just": 4056,
      "center": 4057,
      "##ya": 4058,
      "games": 4059,
      "##igi": 4060,
      "##osp": 4061,
      "age": 4062,
      "Joh": 4063,
      "##ining": 4064,
      "served": 4065,
      "##ammen": 4066,
      "##igkeit": 4067,
      "real": 4068,
      "1970": 4069,
      "test": 4070,
      "##irm": 4071,
      "spe": 4072,
      "br": 4073,
      "##unicipal": 4074,
      "add": 4075,
      "hel": 4076,
      "Naissance": 4077,
      "##amen": 4078,
      "Royal": 4079,
      "lim": 4080,
      "Fried": 4081,
      "Sim": 4082,
      "perm": 4083,
      "était": 4084,
      "##atre": 4085,
      "published": 4086,
      "##roup": 4087,
      "zwischen": 4088,
      "1985": 4089,
      "received": 4090,
      "refer": 4091,
      "Note": 4092,
      "tre": 4093,
      "##ately": 4094,
      "##amento": 4095,
      "##elli": 4096,
      "##rieg": 4097,
      "Sen": 4098,
      "batt": 4099,
      "##for": 4100,
      "dest": 4101,
      "être": 4102,
      "##etto": 4103,
      "Ang": 4104,
      "##ched": 4105,
      "Als": 4106,
      "Del": 4107,
      "##nis": 4108,
      "like": 4109,
      "California": 4110,
      "Cla": 4111,
      "Leg": 4112,
      "Museum": 4113,
      "##äs": 4114,
      "##inz": 4115,
      "##go": 4116,
      "Jahren": 4117,
      "##loy": 4118,
      "##fahr": 4119,
      "award": 4120,
      "last": 4121,
      "seit": 4122,
      "##blic": 4123,
      "Pet": 4124,
      "Music": 4125,
      "Bau": 4126,
      "##äch": 4127,
      "Mitgli": 4128,
      "##odes": 4129,
      "East": 4130,
      "1945": 4131,
      "America": 4132,
      "##ype": 4133,
      "180": 4134,
      "anni": 4135,
      "Form": 4136,
      "##ommen": 4137,
      "Jahrhundert": 4138,
      "##akes": 4139,
      "compos": 4140,
      "Spiel": 4141,
      "Hand": 4142,
      "species": 4143,
      "##azz": 4144,
      "Super": 4145,
      "Division": 4146,
      "##ording": 4147,
      "##site": 4148,
      "Lu": 4149,
      "##ically": 4150,
      "history": 4151,
      "waren": 4152,
      "Australia": 4153,
      "##apt": 4154,
      "Geschichte": 4155,
      "##ization": 4156,
      "cla": 4157,
      "##ala": 4158,
      "Produ": 4159,
      "##temp": 4160,
      "Pop": 4161,
      "##iga": 4162,
      "Seit": 4163,
      "##ingen": 4164,
      "Ant": 4165,
      "Mo": 4166,
      "original": 4167,
      "dont": 4168,
      "requ": 4169,
      "##volution": 4170,
      "cel": 4171,
      "##ipp": 4172,
      "##gent": 4173,
      "My": 4174,
      "##neh": 4175,
      "Union": 4176,
      "##lio": 4177,
      "premier": 4178,
      "##äter": 4179,
      "web": 4180,
      "So": 4181,
      "district": 4182,
      "order": 4183,
      "Nav": 4184,
      "##aires": 4185,
      "Pier": 4186,
      "sold": 4187,
      "Ent": 4188,
      "##ody": 4189,
      "Vir": 4190,
      "fa": 4191,
      "##nes": 4192,
      "##50": 4193,
      "Gen": 4194,
      "##ban": 4195,
      "##ouver": 4196,
      "##rug": 4197,
      "ép": 4198,
      "##ified": 4199,
      "##ouncil": 4200,
      "##itut": 4201,
      "guer": 4202,
      "##tain": 4203,
      "Ba": 4204,
      "1983": 4205,
      "var": 4206,
      "##ös": 4207,
      "182": 4208,
      "##rab": 4209,
      "Bes": 4210,
      "##ey": 4211,
      "##atore": 4212,
      "player": 4213,
      "prima": 4214,
      "intern": 4215,
      "Sil": 4216,
      "include": 4217,
      "five": 4218,
      "lors": 4219,
      "ai": 4220,
      "Kn": 4221,
      "1982": 4222,
      "power": 4223,
      "Tit": 4224,
      "Miss": 4225,
      "Church": 4226,
      "##igt": 4227,
      "Ober": 4228,
      "fun": 4229,
      "##oung": 4230,
      "Fuß": 4231,
      "Indian": 4232,
      "anim": 4233,
      "point": 4234,
      "##itte": 4235,
      "##ua": 4236,
      "tri": 4237,
      "prot": 4238,
      "Ger": 4239,
      "où": 4240,
      "##rice": 4241,
      "Hall": 4242,
      "within": 4243,
      "##loss": 4244,
      "##unt": 4245,
      "leur": 4246,
      "sl": 4247,
      "##78": 4248,
      "##hi": 4249,
      "##jet": 4250,
      "sk": 4251,
      "By": 4252,
      "wieder": 4253,
      "##thers": 4254,
      "short": 4255,
      "##ailway": 4256,
      "Ha": 4257,
      "##uv": 4258,
      "because": 4259,
      "179": 4260,
      "President": 4261,
      "turn": 4262,
      "##önig": 4263,
      "Di": 4264,
      "Pers": 4265,
      "##kl": 4266,
      "##riend": 4267,
      "##insi": 4268,
      "##aine": 4269,
      "jed": 4270,
      "##ktion": 4271,
      "infl": 4272,
      "##usammen": 4273,
      "##nah": 4274,
      "##field": 4275,
      "find": 4276,
      "##though": 4277,
      "doc": 4278,
      "##alk": 4279,
      "##ape": 4280,
      "Cont": 4281,
      "Bu": 4282,
      "degli": 4283,
      "third": 4284,
      "Ort": 4285,
      "Nor": 4286,
      "caus": 4287,
      "né": 4288,
      "##folg": 4289,
      "1979": 4290,
      "Govern": 4291,
      "Dire": 4292,
      "Black": 4293,
      "##nen": 4294,
      "Richard": 4295,
      "production": 4296,
      "##iction": 4297,
      "During": 4298,
      "##ouv": 4299,
      "pos": 4300,
      "indust": 4301,
      "lib": 4302,
      "ident": 4303,
      "##pert": 4304,
      "1981": 4305,
      "Bur": 4306,
      "##lad": 4307,
      "##gin": 4308,
      "ric": 4309,
      "represent": 4310,
      "version": 4311,
      "mol": 4312,
      "trois": 4313,
      "mer": 4314,
      "1972": 4315,
      "rapp": 4316,
      "tut": 4317,
      "##je": 4318,
      "ens": 4319,
      "##ribut": 4320,
      "##ilipp": 4321,
      "led": 4322,
      "said": 4323,
      "##oni": 4324,
      "##ged": 4325,
      "deutscher": 4326,
      "Du": 4327,
      "Vers": 4328,
      "prote": 4329,
      "building": 4330,
      "west": 4331,
      "current": 4332,
      "dro": 4333,
      "##imo": 4334,
      "1960": 4335,
      "You": 4336,
      "##eland": 4337,
      "Fern": 4338,
      "##ete": 4339,
      "##idae": 4340,
      "##azioni": 4341,
      "personn": 4342,
      "##ombre": 4343,
      "##ift": 4344,
      "##tement": 4345,
      "social": 4346,
      "stato": 4347,
      "##irk": 4348,
      "1975": 4349,
      "Bet": 4350,
      "1976": 4351,
      "Dar": 4352,
      "1978": 4353,
      "nord": 4354,
      "##erb": 4355,
      "level": 4356,
      "result": 4357,
      "book": 4358,
      "##ova": 4359,
      "Bern": 4360,
      "ihre": 4361,
      "génér": 4362,
      "Bundes": 4363,
      "winn": 4364,
      "##arch": 4365,
      "##iles": 4366,
      "##ogen": 4367,
      "dieser": 4368,
      "Christian": 4369,
      "Tex": 4370,
      "Zw": 4371,
      "India": 4372,
      "Johann": 4373,
      "children": 4374,
      "Gemeinde": 4375,
      "Records": 4376,
      "described": 4377,
      "Flor": 4378,
      "ang": 4379,
      "Prem": 4380,
      "folg": 4381,
      "Mex": 4382,
      "jou": 4383,
      "##izione": 4384,
      "match": 4385,
      "hal": 4386,
      "Press": 4387,
      "ten": 4388,
      "##ecut": 4389,
      "##illes": 4390,
      "##ième": 4391,
      "##ités": 4392,
      "##ockey": 4393,
      "1974": 4394,
      "ev": 4395,
      "Che": 4396,
      "Liste": 4397,
      "acqu": 4398,
      "aver": 4399,
      "Hal": 4400,
      "##ja": 4401,
      "Sur": 4402,
      "cond": 4403,
      "total": 4404,
      "Martin": 4405,
      "Second": 4406,
      "##lage": 4407,
      "territ": 4408,
      "##ady": 4409,
      "Commun": 4410,
      "Gal": 4411,
      "Mount": 4412,
      "included": 4413,
      "##etzt": 4414,
      "hom": 4415,
      "améric": 4416,
      "Mass": 4417,
      "priv": 4418,
      "if": 4419,
      "gel": 4420,
      "water": 4421,
      "##mal": 4422,
      "Party": 4423,
      "author": 4424,
      "report": 4425,
      "still": 4426,
      "1968": 4427,
      "##ava": 4428,
      "##rick": 4429,
      "##sy": 4430,
      "##lor": 4431,
      "Est": 4432,
      "##aur": 4433,
      "##rieb": 4434,
      "nu": 4435,
      "##sterreich": 4436,
      "##ras": 4437,
      "Australian": 4438,
      "miss": 4439,
      "##iller": 4440,
      "également": 4441,
      "##vious": 4442,
      "individ": 4443,
      "Republic": 4444,
      "##ush": 4445,
      "équip": 4446,
      "1977": 4447,
      "archit": 4448,
      "Year": 4449,
      "##ources": 4450,
      "Town": 4451,
      "puis": 4452,
      "country": 4453,
      "##äl": 4454,
      "##nex": 4455,
      "mort": 4456,
      "struct": 4457,
      "Wash": 4458,
      "incre": 4459,
      "##ota": 4460,
      "##dom": 4461,
      "Cons": 4462,
      "##icle": 4463,
      "App": 4464,
      "natur": 4465,
      "Tel": 4466,
      "##rift": 4467,
      "Serv": 4468,
      "III": 4469,
      "Bad": 4470,
      "##ots": 4471,
      "1973": 4472,
      "##rum": 4473,
      "amer": 4474,
      "autres": 4475,
      "Vict": 4476,
      "FC": 4477,
      "prof": 4478,
      "chang": 4479,
      "addition": 4480,
      "sud": 4481,
      "##osc": 4482,
      "administ": 4483,
      "Gar": 4484,
      "very": 4485,
      "##tens": 4486,
      "Sel": 4487,
      "Joseph": 4488,
      "##bau": 4489,
      "million": 4490,
      "##ering": 4491,
      "##rach": 4492,
      "Army": 4493,
      "artist": 4494,
      "European": 4495,
      "##äd": 4496,
      "##ams": 4497,
      "Go": 4498,
      "##itute": 4499,
      "When": 4500,
      "process": 4501,
      "plan": 4502,
      "Tro": 4503,
      "field": 4504,
      "##glich": 4505,
      "##ple": 4506,
      "##anto": 4507,
      "##unn": 4508,
      "Os": 4509,
      "35": 4510,
      "##irl": 4511,
      "With": 4512,
      "##meister": 4513,
      "Ann": 4514,
      "Mitglied": 4515,
      "Ins": 4516,
      "##aft": 4517,
      "Mark": 4518,
      "##öff": 4519,
      "nombre": 4520,
      "1971": 4521,
      "those": 4522,
      "##ively": 4523,
      "##ness": 4524,
      "##inder": 4525,
      "Av": 4526,
      "##wood": 4527,
      "male": 4528,
      "Cro": 4529,
      "sent": 4530,
      "Mel": 4531,
      "Po": 4532,
      "##raße": 4533,
      "##unst": 4534,
      "##cks": 4535,
      "##entlich": 4536,
      "business": 4537,
      "##agen": 4538,
      "##hof": 4539,
      "special": 4540,
      "regia": 4541,
      "Luc": 4542,
      "alors": 4543,
      "gre": 4544,
      "ville": 4545,
      "deaths": 4546,
      "language": 4547,
      "Street": 4548,
      "1969": 4549,
      "Mary": 4550,
      "gl": 4551,
      "commune": 4552,
      "##bour": 4553,
      "round": 4554,
      "##put": 4555,
      "##ieg": 4556,
      "Washington": 4557,
      "different": 4558,
      "Academ": 4559,
      "##uge": 4560,
      "pot": 4561,
      "First": 4562,
      "##atic": 4563,
      "mult": 4564,
      "König": 4565,
      "Georg": 4566,
      "##ährend": 4567,
      "another": 4568,
      "tourn": 4569,
      "##zi": 4570,
      "Fußball": 4571,
      "##itution": 4572,
      "side": 4573,
      "divers": 4574,
      "exist": 4575,
      "trou": 4576,
      "ainsi": 4577,
      "##viron": 4578,
      "Geboren": 4579,
      "late": 4580,
      "Son": 4581,
      "dopo": 4582,
      "##vor": 4583,
      "Sl": 4584,
      "Batt": 4585,
      "compr": 4586,
      "sou": 4587,
      "Mün": 4588,
      "##rist": 4589,
      "Star": 4590,
      "Class": 4591,
      "Emp": 4592,
      "##enen": 4593,
      "##work": 4594,
      "##rier": 4595,
      "sem": 4596,
      "Mot": 4597,
      "##BC": 4598,
      "##amer": 4599,
      "##IN": 4600,
      "often": 4601,
      "später": 4602,
      "Gall": 4603,
      "Anton": 4604,
      "Den": 4605,
      "modern": 4606,
      "##ying": 4607,
      "Que": 4608,
      "##rain": 4609,
      "dou": 4610,
      "##imento": 4611,
      "allem": 4612,
      "month": 4613,
      "character": 4614,
      "Football": 4615,
      "##ination": 4616,
      "##west": 4617,
      "##schaften": 4618,
      "cat": 4619,
      "ult": 4620,
      "##ification": 4621,
      "##ène": 4622,
      "Rh": 4623,
      "Minister": 4624,
      "1967": 4625,
      "China": 4626,
      "##spieler": 4627,
      "tradition": 4628,
      "geb": 4629,
      "##ises": 4630,
      "CD": 4631,
      "##acht": 4632,
      "sal": 4633,
      "##arten": 4634,
      "produced": 4635,
      "contre": 4636,
      "Déc": 4637,
      "ges": 4638,
      "To": 4639,
      "commer": 4640,
      "##isl": 4641,
      "ersten": 4642,
      "##ografia": 4643,
      "Scott": 4644,
      "Deutschland": 4645,
      "Techn": 4646,
      "kill": 4647,
      "Profess": 4648,
      "moved": 4649,
      "mo": 4650,
      "##itor": 4651,
      "##ki": 4652,
      "Tom": 4653,
      "##év": 4654,
      "neg": 4655,
      "##ielt": 4656,
      "##bers": 4657,
      "cré": 4658,
      "##andid": 4659,
      "##ationale": 4660,
      "Company": 4661,
      "première": 4662,
      "##rian": 4663,
      "60": 4664,
      "32": 4665,
      "bi": 4666,
      "though": 4667,
      "make": 4668,
      "help": 4669,
      "Maria": 4670,
      "erh": 4671,
      "##raw": 4672,
      "Ke": 4673,
      "Arm": 4674,
      "##ada": 4675,
      "bek": 4676,
      "position": 4677,
      "Law": 4678,
      "Song": 4679,
      "él": 4680,
      "general": 4681,
      "Lib": 4682,
      "##eva": 4683,
      "title": 4684,
      "jedoch": 4685,
      "##rest": 4686,
      "##bst": 4687,
      "Canadian": 4688,
      "##alog": 4689,
      "Dis": 4690,
      "Island": 4691,
      "groß": 4692,
      "##lav": 4693,
      "1964": 4694,
      "written": 4695,
      "father": 4696,
      "debut": 4697,
      "siè": 4698,
      "Pan": 4699,
      "erst": 4700,
      "éle": 4701,
      "tout": 4702,
      "Tre": 4703,
      "##inger": 4704,
      "fact": 4705,
      "drei": 4706,
      "points": 4707,
      "video": 4708,
      "Carl": 4709,
      "Album": 4710,
      "##onc": 4711,
      "45": 4712,
      "Groß": 4713,
      "Sport": 4714,
      "even": 4715,
      "mass": 4716,
      "viol": 4717,
      "mal": 4718,
      "##inen": 4719,
      "##etter": 4720,
      "Rob": 4721,
      "##endant": 4722,
      "##ured": 4723,
      "Philipp": 4724,
      "Lab": 4725,
      "enter": 4726,
      "##öß": 4727,
      "##enc": 4728,
      "##arbeit": 4729,
      "##ôt": 4730,
      "##ological": 4731,
      "##ground": 4732,
      "etwa": 4733,
      "##ocrat": 4734,
      "1966": 4735,
      "##reek": 4736,
      "church": 4737,
      "##astern": 4738,
      "##ilar": 4739,
      "exper": 4740,
      "brit": 4741,
      "among": 4742,
      "##esi": 4743,
      "Karl": 4744,
      "Rock": 4745,
      "Francis": 4746,
      "1965": 4747,
      "##amt": 4748,
      "Society": 4749,
      "##ittle": 4750,
      "invol": 4751,
      "##ruck": 4752,
      "introdu": 4753,
      "occup": 4754,
      "Stand": 4755,
      "Kh": 4756,
      "##ounced": 4757,
      "##auer": 4758,
      "Los": 4759,
      "##ope": 4760,
      "Group": 4761,
      "direct": 4762,
      "Hill": 4763,
      "##ittel": 4764,
      "establish": 4765,
      "##labor": 4766,
      "Hoch": 4767,
      "Council": 4768,
      "##uten": 4769,
      "Atl": 4770,
      "##wards": 4771,
      "effect": 4772,
      "Bill": 4773,
      "##bach": 4774,
      "##side": 4775,
      "Road": 4776,
      "rés": 4777,
      "1950": 4778,
      "Ak": 4779,
      "##NG": 4780,
      "equ": 4781,
      "##CA": 4782,
      "partie": 4783,
      "##utsche": 4784,
      "Hel": 4785,
      "From": 4786,
      "années": 4787,
      "Span": 4788,
      "ship": 4789,
      "Pierre": 4790,
      "Ros": 4791,
      "engine": 4792,
      "election": 4793,
      "##esh": 4794,
      "Da": 4795,
      "##ump": 4796,
      "##ème": 4797,
      "##anno": 4798,
      "works": 4799,
      "Henry": 4800,
      "cover": 4801,
      "##irtsch": 4802,
      "36": 4803,
      "konn": 4804,
      "invest": 4805,
      "33": 4806,
      "via": 4807,
      "Süd": 4808,
      "previous": 4809,
      "##rik": 4810,
      "Beg": 4811,
      "phot": 4812,
      "president": 4813,
      "official": 4814,
      "econom": 4815,
      "Ath": 4816,
      "Lie": 4817,
      "##ogn": 4818,
      "##day": 4819,
      "base": 4820,
      "services": 4821,
      "##isme": 4822,
      "##serv": 4823,
      "##ohl": 4824,
      "##ories": 4825,
      "important": 4826,
      "elect": 4827,
      "##lac": 4828,
      "Bor": 4829,
      "##color": 4830,
      "Mär": 4831,
      "Marc": 4832,
      "solo": 4833,
      "municipal": 4834,
      "Rom": 4835,
      "ur": 4836,
      "ve": 4837,
      "##adre": 4838,
      "Haupt": 4839,
      "##uter": 4840,
      "Leben": 4841,
      "##onst": 4842,
      "ben": 4843,
      "Arbeit": 4844,
      "beh": 4845,
      "Cong": 4846,
      "##ón": 4847,
      "##ieurs": 4848,
      "phys": 4849,
      "Mas": 4850,
      "typ": 4851,
      "##gew": 4852,
      "mont": 4853,
      "##zt": 4854,
      "bg": 4855,
      "Pf": 4856,
      "depuis": 4857,
      "came": 4858,
      "voc": 4859,
      "##rient": 4860,
      "178": 4861,
      "##onna": 4862,
      "##rote": 4863,
      "##isten": 4864,
      "bgcolor": 4865,
      "##icians": 4866,
      "role": 4867,
      "peut": 4868,
      "pet": 4869,
      "Public": 4870,
      "created": 4871,
      "##edi": 4872,
      "what": 4873,
      "every": 4874,
      "Lang": 4875,
      "Hans": 4876,
      "gehör": 4877,
      "##ovo": 4878,
      "Const": 4879,
      "##ecture": 4880,
      "Just": 4881,
      "##äh": 4882,
      "##stadt": 4883,
      "Organ": 4884,
      "Awards": 4885,
      "Rel": 4886,
      "Ce": 4887,
      "Carol": 4888,
      "Germany": 4889,
      "Gold": 4890,
      "##été": 4891,
      "##ibt": 4892,
      "common": 4893,
      "##ieren": 4894,
      "##uan": 4895,
      "Von": 4896,
      "##ults": 4897,
      "ill": 4898,
      "##icial": 4899,
      "essere": 4900,
      "##otto": 4901,
      "##bel": 4902,
      "allow": 4903,
      "alc": 4904,
      "much": 4905,
      "command": 4906,
      "story": 4907,
      "Verein": 4908,
      "1963": 4909,
      "given": 4910,
      "community": 4911,
      "##ised": 4912,
      "1962": 4913,
      "host": 4914,
      "Mai": 4915,
      "Do": 4916,
      "coach": 4917,
      "##aterial": 4918,
      "Inf": 4919,
      "Festival": 4920,
      "Oper": 4921,
      "##eten": 4922,
      "ju": 4923,
      "führ": 4924,
      "##kehr": 4925,
      "Universität": 4926,
      "##erc": 4927,
      "##bur": 4928,
      "##ared": 4929,
      "contro": 4930,
      "Verlag": 4931,
      "started": 4932,
      "development": 4933,
      "Milit": 4934,
      "Lo": 4935,
      "##bra": 4936,
      "tw": 4937,
      "##ellt": 4938,
      "fest": 4939,
      "Reich": 4940,
      "Center": 4941,
      "read": 4942,
      "##ios": 4943,
      "##erem": 4944,
      "amerikan": 4945,
      "Dre": 4946,
      "Sol": 4947,
      "##riff": 4948,
      "nell": 4949,
      "beim": 4950,
      "##weg": 4951,
      "##rale": 4952,
      "##atori": 4953,
      "##usqu": 4954,
      "sw": 4955,
      "living": 4956,
      "fort": 4957,
      "##teg": 4958,
      "##idence": 4959,
      "Virgin": 4960,
      "##iam": 4961,
      "way": 4962,
      "cro": 4963,
      "avant": 4964,
      "ci": 4965,
      "##mon": 4966,
      "1944": 4967,
      "went": 4968,
      "##pre": 4969,
      "##zie": 4970,
      "Bild": 4971,
      "500": 4972,
      "Altri": 4973,
      "##assen": 4974,
      "Belg": 4975,
      "##hib": 4976,
      "pu": 4977,
      "married": 4978,
      "These": 4979,
      "##unter": 4980,
      "political": 4981,
      "Mur": 4982,
      "##ba": 4983,
      "##ester": 4984,
      "##IA": 4985,
      "1961": 4986,
      "##uses": 4987,
      "fer": 4988,
      "abs": 4989,
      "Feder": 4990,
      "##aria": 4991,
      "Décès": 4992,
      "popular": 4993,
      "riv": 4994,
      "soll": 4995,
      "##rel": 4996,
      "various": 4997,
      "##partment": 4998,
      "##cast": 4999,
      "USA": 5000,
      "##ias": 5001,
      "front": 5002,
      "##zent": 5003,
      "##ruppe": 5004,
      "##fts": 5005,
      "##lier": 5006,
      "##osoph": 5007,
      "Smith": 5008,
      "albums": 5009,
      "Japanese": 5010,
      "Green": 5011,
      "##werk": 5012,
      "using": 5013,
      "##rov": 5014,
      "##bes": 5015,
      "##fen": 5016,
      "Spr": 5017,
      "become": 5018,
      "##rama": 5019,
      "citt": 5020,
      "##aken": 5021,
      "gest": 5022,
      "##ship": 5023,
      "Nic": 5024,
      "segu": 5025,
      "grande": 5026,
      "zurück": 5027,
      "military": 5028,
      "nomin": 5029,
      "radio": 5030,
      "far": 5031,
      "Central": 5032,
      "34": 5033,
      "##chts": 5034,
      "##allen": 5035,
      "associ": 5036,
      "1939": 5037,
      "##ules": 5038,
      "Kur": 5039,
      "rock": 5040,
      "Dou": 5041,
      "defe": 5042,
      "##aly": 5043,
      "dall": 5044,
      "##éro": 5045,
      "Fol": 5046,
      "announced": 5047,
      "80": 5048,
      "1940": 5049,
      "1956": 5050,
      "##kreis": 5051,
      "appoint": 5052,
      "versch": 5053,
      "seinem": 5054,
      "##war": 5055,
      "cy": 5056,
      "UK": 5057,
      "Italian": 5058,
      "kann": 5059,
      "Penn": 5060,
      "1958": 5061,
      "Bei": 5062,
      "##ray": 5063,
      "Institute": 5064,
      "pubblic": 5065,
      "cast": 5066,
      "White": 5067,
      "Women": 5068,
      "track": 5069,
      "cop": 5070,
      "##emble": 5071,
      "Villa": 5072,
      "serie": 5073,
      "Platz": 5074,
      "text": 5075,
      "scient": 5076,
      "##ference": 5077,
      "Far": 5078,
      "dern": 5079,
      "##ERL": 5080,
      "type": 5081,
      "##isse": 5082,
      "next": 5083,
      "##licher": 5084,
      "##inden": 5085,
      "1959": 5086,
      "##UNG": 5087,
      "Texas": 5088,
      "Kunst": 5089,
      "Tri": 5090,
      "##atives": 5091,
      "##ums": 5092,
      "##ribution": 5093,
      "students": 5094,
      "take": 5095,
      "##bild": 5096,
      "##ource": 5097,
      "Kirche": 5098,
      "Ap": 5099,
      "##ston": 5100,
      "having": 5101,
      "##rom": 5102,
      "Chin": 5103,
      "document": 5104,
      "journal": 5105,
      "##zw": 5106,
      "##fang": 5107,
      "Prog": 5108,
      "Dans": 5109,
      "get": 5110,
      "##EITUNG": 5111,
      "WEIT": 5112,
      "WEITERL": 5113,
      "WEITERLEITUNG": 5114,
      "##aggi": 5115,
      "##ketball": 5116,
      "Sar": 5117,
      "assist": 5118,
      "construction": 5119,
      "Net": 5120,
      "press": 5121,
      "few": 5122,
      "Chic": 5123,
      "progetti": 5124,
      "##aker": 5125,
      "##ached": 5126,
      "research": 5127,
      "claim": 5128,
      "Fer": 5129,
      "ide": 5130,
      "Rad": 5131,
      "##cent": 5132,
      "nav": 5133,
      "##tober": 5134,
      "great": 5135,
      "##uro": 5136,
      "##umni": 5137,
      "condu": 5138,
      "Som": 5139,
      "jusqu": 5140,
      "bass": 5141,
      "Pap": 5142,
      "Great": 5143,
      "Sub": 5144,
      "Academy": 5145,
      "loro": 5146,
      "Team": 5147,
      "gradu": 5148,
      "suff": 5149,
      "seinen": 5150,
      "##ritt": 5151,
      "pal": 5152,
      "##azine": 5153,
      "März": 5154,
      "##lik": 5155,
      "viene": 5156,
      "##oles": 5157,
      "##iddle": 5158,
      "Für": 5159,
      "defin": 5160,
      "iniz": 5161,
      "monde": 5162,
      "20th": 5163,
      "pa": 5164,
      "Western": 5165,
      "Oktober": 5166,
      "##asser": 5167,
      "amb": 5168,
      "groupe": 5169,
      "Isra": 5170,
      "worked": 5171,
      "Ur": 5172,
      "##ierten": 5173,
      "##ereits": 5174,
      "##itch": 5175,
      "dim": 5176,
      "##bl": 5177,
      "##10": 5178,
      "Court": 5179,
      "##gang": 5180,
      "##ians": 5181,
      "Bal": 5182,
      "Miche": 5183,
      "##sequ": 5184,
      "Lat": 5185,
      "net": 5186,
      "1957": 5187,
      "##ül": 5188,
      "Jud": 5189,
      "songs": 5190,
      "Si": 5191,
      "joined": 5192,
      "ihn": 5193,
      "Ende": 5194,
      "Juni": 5195,
      "##ids": 5196,
      "Januar": 5197,
      "##este": 5198,
      "##iences": 5199,
      "need": 5200,
      "Stat": 5201,
      "east": 5202,
      "##usion": 5203,
      "project": 5204,
      "##atri": 5205,
      "Jew": 5206,
      "pun": 5207,
      "##onia": 5208,
      "Post": 5209,
      "Bus": 5210,
      "Grund": 5211,
      "word": 5212,
      "friend": 5213,
      "##ror": 5214,
      "##unden": 5215,
      "Ly": 5216,
      "Day": 5217,
      "##nexes": 5218,
      "half": 5219,
      "38": 5220,
      "##isches": 5221,
      "##istan": 5222,
      "Main": 5223,
      "##ado": 5224,
      "1948": 5225,
      "control": 5226,
      "1942": 5227,
      "vict": 5228,
      "##ski": 5229,
      "hon": 5230,
      "##sych": 5231,
      "##ultur": 5232,
      "times": 5233,
      "##lay": 5234,
      "Love": 5235,
      "environ": 5236,
      "relations": 5237,
      "diese": 5238,
      "Sports": 5239,
      "But": 5240,
      "examp": 5241,
      "##hand": 5242,
      "Tod": 5243,
      "1943": 5244,
      "##oper": 5245,
      "##ells": 5246,
      "##feld": 5247,
      "Kingdom": 5248,
      "##ela": 5249,
      "Gest": 5250,
      "##ware": 5251,
      "Sud": 5252,
      "finale": 5253,
      "##fol": 5254,
      "1955": 5255,
      "##iß": 5256,
      "1952": 5257,
      "1946": 5258,
      "##aggio": 5259,
      "Natur": 5260,
      "Top": 5261,
      "##anger": 5262,
      "opened": 5263,
      "full": 5264,
      "##zz": 5265,
      "wrote": 5266,
      "dir": 5267,
      "##ché": 5268,
      "sé": 5269,
      "Und": 5270,
      "ven": 5271,
      "deg": 5272,
      "##pond": 5273,
      "win": 5274,
      "mach": 5275,
      "returned": 5276,
      "##ators": 5277,
      "##osi": 5278,
      "Schwe": 5279,
      "ces": 5280,
      "##akt": 5281,
      "##wend": 5282,
      "##rière": 5283,
      "##ères": 5284,
      "Games": 5285,
      "##una": 5286,
      "##upp": 5287,
      "##richt": 5288,
      "Musik": 5289,
      "Fort": 5290,
      "stre": 5291,
      "Chicago": 5292,
      "without": 5293,
      "Sy": 5294,
      "however": 5295,
      "Berg": 5296,
      "events": 5297,
      "##itive": 5298,
      "##hne": 5299,
      "##erve": 5300,
      "og": 5301,
      "Summer": 5302,
      "founded": 5303,
      "##uta": 5304,
      "signific": 5305,
      "Africa": 5306,
      "professional": 5307,
      "liegt": 5308,
      "employ": 5309,
      "##ishing": 5310,
      "similar": 5311,
      "##lam": 5312,
      "mid": 5313,
      "90": 5314,
      "conv": 5315,
      "Juli": 5316,
      "##ician": 5317,
      "##cial": 5318,
      "##leg": 5319,
      "kön": 5320,
      "44": 5321,
      "Other": 5322,
      "fav": 5323,
      "rad": 5324,
      "attack": 5325,
      "ast": 5326,
      "respons": 5327,
      "méd": 5328,
      "Voir": 5329,
      "##helm": 5330,
      "road": 5331,
      "Russian": 5332,
      "Friedrich": 5333,
      "data": 5334,
      "live": 5335,
      "##issenschaft": 5336,
      "##bens": 5337,
      "##igli": 5338,
      "primo": 5339,
      "Cathol": 5340,
      "##ensus": 5341,
      "verb": 5342,
      "##ache": 5343,
      "##ivi": 5344,
      "70": 5345,
      "##ests": 5346,
      "pract": 5347,
      "Spec": 5348,
      "##ager": 5349,
      "1941": 5350,
      "dann": 5351,
      "1954": 5352,
      "liv": 5353,
      "gesch": 5354,
      "Dez": 5355,
      "##äng": 5356,
      "Sand": 5357,
      "broad": 5358,
      "Department": 5359,
      "Life": 5360,
      "##cia": 5361,
      "website": 5362,
      "##tra": 5363,
      "##lique": 5364,
      "plusieurs": 5365,
      "African": 5366,
      "director": 5367,
      "System": 5368,
      "réalis": 5369,
      "region": 5370,
      "Journal": 5371,
      "guitar": 5372,
      "Arts": 5373,
      "pays": 5374,
      "Bud": 5375,
      "##anies": 5376,
      "##rated": 5377,
      "##yth": 5378,
      "##ning": 5379,
      "##oud": 5380,
      "soci": 5381,
      "1953": 5382,
      "europ": 5383,
      "##anton": 5384,
      "##aland": 5385,
      "Squ": 5386,
      "Sir": 5387,
      "heute": 5388,
      "##liament": 5389,
      "37": 5390,
      "##dem": 5391,
      "##ending": 5392,
      "##gab": 5393,
      "Hon": 5394,
      "##ittee": 5395,
      "Out": 5396,
      "initi": 5397,
      "##hard": 5398,
      "Fred": 5399,
      "##amment": 5400,
      "##azionale": 5401,
      "Bru": 5402,
      "##gy": 5403,
      "centre": 5404,
      "1938": 5405,
      "pap": 5406,
      "teams": 5407,
      "1930": 5408,
      "offer": 5409,
      "cr": 5410,
      "human": 5411,
      "promot": 5412,
      "##zeug": 5413,
      "##aign": 5414,
      "1947": 5415,
      "##AS": 5416,
      "978": 5417,
      "cours": 5418,
      "1949": 5419,
      "##ulture": 5420,
      "Ev": 5421,
      "rom": 5422,
      "##oney": 5423,
      "##orben": 5424,
      "Jun": 5425,
      "##halten": 5426,
      "##chie": 5427,
      "év": 5428,
      "vic": 5429,
      "Wien": 5430,
      "##umm": 5431,
      "case": 5432,
      "According": 5433,
      "wo": 5434,
      "177": 5435,
      "##eiten": 5436,
      "très": 5437,
      "##atch": 5438,
      "pur": 5439,
      "engl": 5440,
      "##ellow": 5441,
      "erste": 5442,
      "##ked": 5443,
      "##uth": 5444,
      "recorded": 5445,
      "##lä": 5446,
      "##eball": 5447,
      "peu": 5448,
      "see": 5449,
      "##aining": 5450,
      "Intern": 5451,
      "habit": 5452,
      "Radio": 5453,
      "Spe": 5454,
      "##edy": 5455,
      "lost": 5456,
      "Boy": 5457,
      "bord": 5458,
      "zusammen": 5459,
      "stag": 5460,
      "week": 5461,
      "party": 5462,
      "Old": 5463,
      "Lin": 5464,
      "1920": 5465,
      "##AR": 5466,
      "Play": 5467,
      "Franz": 5468,
      "##utes": 5469,
      "##éb": 5470,
      "##ingu": 5471,
      "Jack": 5472,
      "##itter": 5473,
      "42": 5474,
      "Angeles": 5475,
      "##antes": 5476,
      "##rog": 5477,
      "groups": 5478,
      "daugh": 5479,
      "tras": 5480,
      "elected": 5481,
      "##anda": 5482,
      "série": 5483,
      "Ern": 5484,
      "ze": 5485,
      "vie": 5486,
      "Haus": 5487,
      "##ither": 5488,
      "##lied": 5489,
      "##éra": 5490,
      "Bahn": 5491,
      "Dezember": 5492,
      "##lear": 5493,
      "Ost": 5494,
      "Esp": 5495,
      "trav": 5496,
      "Buch": 5497,
      "##ky": 5498,
      "Bul": 5499,
      "separ": 5500,
      "##altung": 5501,
      "Saison": 5502,
      "##velle": 5503,
      "00": 5504,
      "##oming": 5505,
      "tou": 5506,
      "##anza": 5507,
      "sport": 5508,
      "education": 5509,
      "Über": 5510,
      "utilis": 5511,
      "##essa": 5512,
      "numer": 5513,
      "directed": 5514,
      "saison": 5515,
      "##ienst": 5516,
      "race": 5517,
      "Hot": 5518,
      "##cription": 5519,
      "Big": 5520,
      "mil": 5521,
      "américain": 5522,
      "continued": 5523,
      "studio": 5524,
      "days": 5525,
      "##mi": 5526,
      "dort": 5527,
      "Jos": 5528,
      "Wind": 5529,
      "Bob": 5530,
      "1933": 5531,
      "Lake": 5532,
      "viel": 5533,
      "God": 5534,
      "vier": 5535,
      "Att": 5536,
      "##irt": 5537,
      "information": 5538,
      "##stellung": 5539,
      "squad": 5540,
      "Marie": 5541,
      "##ugby": 5542,
      "##halb": 5543,
      "1951": 5544,
      "rev": 5545,
      "##chest": 5546,
      "central": 5547,
      "tél": 5548,
      "norm": 5549,
      "Daniel": 5550,
      "##partement": 5551,
      "française": 5552,
      "rit": 5553,
      "1936": 5554,
      "ihm": 5555,
      "uno": 5556,
      "Cas": 5557,
      "kam": 5558,
      "areas": 5559,
      "Region": 5560,
      "##zza": 5561,
      "##igung": 5562,
      "##orial": 5563,
      "dés": 5564,
      "ing": 5565,
      "teach": 5566,
      "##ores": 5567,
      "##schen": 5568,
      "particular": 5569,
      "bran": 5570,
      "##oor": 5571,
      "office": 5572,
      "##ership": 5573,
      "##eller": 5574,
      "view": 5575,
      "candid": 5576,
      "sil": 5577,
      "wife": 5578,
      "completed": 5579,
      "##oto": 5580,
      "weiter": 5581,
      "##ece": 5582,
      "nei": 5583,
      "##angel": 5584,
      "##ardo": 5585,
      "fois": 5586,
      "occas": 5587,
      "##lein": 5588,
      "cit": 5589,
      "Cette": 5590,
      "Str": 5591,
      "Eine": 5592,
      "##hemal": 5593,
      "39": 5594,
      "considered": 5595,
      "konnte": 5596,
      "belie": 5597,
      "face": 5598,
      "quel": 5599,
      "sym": 5600,
      "Ast": 5601,
      "fund": 5602,
      "##wig": 5603,
      "pré": 5604,
      "##ête": 5605,
      "Kore": 5606,
      "##hold": 5607,
      "##gether": 5608,
      "together": 5609,
      "sans": 5610,
      "##athol": 5611,
      "trad": 5612,
      "##zioni": 5613,
      "Olympics": 5614,
      "##ih": 5615,
      "##igan": 5616,
      "##ircraft": 5617,
      "città": 5618,
      "##uns": 5619,
      "making": 5620,
      "##30": 5621,
      "États": 5622,
      "##oster": 5623,
      "##rol": 5624,
      "##ande": 5625,
      "action": 5626,
      "Pac": 5627,
      "fra": 5628,
      "##stre": 5629,
      "footballers": 5630,
      "less": 5631,
      "##ospital": 5632,
      "Alf": 5633,
      "Landes": 5634,
      "Kre": 5635,
      "65": 5636,
      "Chinese": 5637,
      "##êt": 5638,
      "coll": 5639,
      "##oco": 5640,
      "geg": 5641,
      "Long": 5642,
      "liter": 5643,
      "##da": 5644,
      "Histoire": 5645,
      "##vention": 5646,
      "places": 5647,
      "##nam": 5648,
      "good": 5649,
      "##used": 5650,
      "free": 5651,
      "Int": 5652,
      "année": 5653,
      "##oi": 5654,
      "Cur": 5655,
      "Articles": 5656,
      "Israel": 5657,
      "dove": 5658,
      "Spanish": 5659,
      "##zer": 5660,
      "Empire": 5661,
      "Sov": 5662,
      "Jim": 5663,
      "##iding": 5664,
      "access": 5665,
      "besch": 5666,
      "developed": 5667,
      "##vey": 5668,
      "##elte": 5669,
      "conserv": 5670,
      "Ren": 5671,
      "erfolg": 5672,
      "Mos": 5673,
      "phil": 5674,
      "novel": 5675,
      "cross": 5676,
      "##orno": 5677,
      "collabor": 5678,
      "##face": 5679,
      "##ünd": 5680,
      "Brown": 5681,
      "release": 5682,
      "Références": 5683,
      "##wohn": 5684,
      "Hor": 5685,
      "##ko": 5686,
      "1918": 5687,
      "##ecutive": 5688,
      "diffic": 5689,
      "##ylvan": 5690,
      "esc": 5691,
      "mor": 5692,
      "Italia": 5693,
      "appar": 5694,
      "rap": 5695,
      "sex": 5696,
      "48": 5697,
      "adv": 5698,
      "##iere": 5699,
      "appeared": 5700,
      "ils": 5701,
      "##udi": 5702,
      "Early": 5703,
      "chr": 5704,
      "##nement": 5705,
      "##aro": 5706,
      "##asons": 5707,
      "##orary": 5708,
      "Loc": 5709,
      "##cke": 5710,
      "##acy": 5711,
      "Railway": 5712,
      "vert": 5713,
      "##oms": 5714,
      "176": 5715,
      "##erts": 5716,
      "league": 5717,
      "Force": 5718,
      "##rary": 5719,
      "Dé": 5720,
      "influ": 5721,
      "ru": 5722,
      "forces": 5723,
      "log": 5724,
      "##ye": 5725,
      "##ordn": 5726,
      "pil": 5727,
      "grow": 5728,
      "##edic": 5729,
      "Lud": 5730,
      "2020": 5731,
      "haben": 5732,
      "Virginia": 5733,
      "Van": 5734,
      "appointed": 5735,
      "avail": 5736,
      "Hum": 5737,
      "division": 5738,
      "Gew": 5739,
      "41": 5740,
      "Santa": 5741,
      "famille": 5742,
      "meet": 5743,
      "problem": 5744,
      "date": 5745,
      "Catholic": 5746,
      "##aines": 5747,
      "##aille": 5748,
      "##iat": 5749,
      "insp": 5750,
      "##self": 5751,
      "signed": 5752,
      "1937": 5753,
      "stations": 5754,
      "venne": 5755,
      "##ovi": 5756,
      "##ières": 5757,
      "Science": 5758,
      "musical": 5759,
      "schools": 5760,
      "##udes": 5761,
      "court": 5762,
      "further": 5763,
      "##ube": 5764,
      "##ways": 5765,
      "questo": 5766,
      "formed": 5767,
      "Max": 5768,
      "##atto": 5769,
      "wel": 5770,
      "som": 5771,
      "autom": 5772,
      "##br": 5773,
      "##agon": 5774,
      "##FA": 5775,
      "hold": 5776,
      "##ält": 5777,
      "quar": 5778,
      "##opt": 5779,
      "1914": 5780,
      "observ": 5781,
      "Ox": 5782,
      "##olare": 5783,
      "##ulated": 5784,
      "Ireland": 5785,
      "black": 5786,
      "##enburg": 5787,
      "Bank": 5788,
      "capt": 5789,
      "##cont": 5790,
      "##nehmen": 5791,
      "Tim": 5792,
      "##üss": 5793,
      "Camb": 5794,
      "does": 5795,
      "##glise": 5796,
      "ihrer": 5797,
      "##pieler": 5798,
      "depart": 5799,
      "Une": 5800,
      "49": 5801,
      "##ramm": 5802,
      "##ika": 5803,
      "##ennis": 5804,
      "##unkt": 5805,
      "##abei": 5806,
      "should": 5807,
      "working": 5808,
      "indic": 5809,
      "Open": 5810,
      "sens": 5811,
      "hous": 5812,
      "suiv": 5813,
      "Kap": 5814,
      "##öffentlich": 5815,
      "Oh": 5816,
      "##film": 5817,
      "route": 5818,
      "##ersch": 5819,
      "##unde": 5820,
      "Columb": 5821,
      "Wolf": 5822,
      "playing": 5823,
      "##án": 5824,
      "##osto": 5825,
      "Cou": 5826,
      "Orig": 5827,
      "dom": 5828,
      "##ably": 5829,
      "##ismus": 5830,
      "##40": 5831,
      "##ständ": 5832,
      "Some": 5833,
      "##sel": 5834,
      "decl": 5835,
      "repla": 5836,
      "syn": 5837,
      "##ila": 5838,
      "remp": 5839,
      "province": 5840,
      "##aries": 5841,
      "##rd": 5842,
      "général": 5843,
      "##buch": 5844,
      "poi": 5845,
      "nelle": 5846,
      "fail": 5847,
      "Wilhelm": 5848,
      "performance": 5849,
      "laun": 5850,
      "body": 5851,
      "Hö": 5852,
      "avoir": 5853,
      "alumni": 5854,
      "Democrat": 5855,
      "beste": 5856,
      "##rea": 5857,
      "mix": 5858,
      "équipe": 5859,
      "##ürger": 5860,
      "1935": 5861,
      "independ": 5862,
      "example": 5863,
      "##onom": 5864,
      "éd": 5865,
      "##ential": 5866,
      "Eis": 5867,
      "##fte": 5868,
      "Zealand": 5869,
      "##iqu": 5870,
      "review": 5871,
      "ground": 5872,
      "While": 5873,
      "##ases": 5874,
      "Films": 5875,
      "bereits": 5876,
      "##iro": 5877,
      "Wood": 5878,
      "##istes": 5879,
      "nouve": 5880,
      "Lee": 5881,
      "low": 5882,
      "others": 5883,
      "Durch": 5884,
      "##cip": 5885,
      "##less": 5886,
      "Februar": 5887,
      "##ested": 5888,
      "install": 5889,
      "##arono": 5890,
      "Ray": 5891,
      "white": 5892,
      "##änger": 5893,
      "##abb": 5894,
      "anderen": 5895,
      "Fernse": 5896,
      "Gol": 5897,
      "Vert": 5898,
      "Exp": 5899,
      "##ially": 5900,
      "##itted": 5901,
      "Schweiz": 5902,
      "300": 5903,
      "hier": 5904,
      "##oke": 5905,
      "Alexander": 5906,
      "Education": 5907,
      "##sc": 5908,
      "##ising": 5909,
      "##kir": 5910,
      "##bol": 5911,
      "Will": 5912,
      "Order": 5913,
      "How": 5914,
      "##ifs": 5915,
      "Mem": 5916,
      "Temp": 5917,
      "himself": 5918,
      "light": 5919,
      "avait": 5920,
      "wid": 5921,
      "##jects": 5922,
      "##idi": 5923,
      "rip": 5924,
      "##ichts": 5925,
      "colon": 5926,
      "während": 5927,
      "##otte": 5928,
      "franz": 5929,
      "1934": 5930,
      "temps": 5931,
      "although": 5932,
      "Kal": 5933,
      "Nap": 5934,
      "##oo": 5935,
      "Jou": 5936,
      "Swed": 5937,
      "Eli": 5938,
      "IV": 5939,
      "gleich": 5940,
      "Norm": 5941,
      "cos": 5942,
      "rais": 5943,
      "##zeichnet": 5944,
      "sug": 5945,
      "Hamb": 5946,
      "##ga": 5947,
      "average": 5948,
      "##atti": 5949,
      "##uelle": 5950,
      "##ables": 5951,
      "Dam": 5952,
      "##rait": 5953,
      "reported": 5954,
      "ber": 5955,
      "Krieg": 5956,
      "##agement": 5957,
      "déf": 5958,
      "##ceed": 5959,
      "##jo": 5960,
      "fire": 5961,
      "Service": 5962,
      "Vo": 5963,
      "##oque": 5964,
      "Fur": 5965,
      "##pret": 5966,
      "##ôle": 5967,
      "Penns": 5968,
      "Prix": 5969,
      "München": 5970,
      "Biographie": 5971,
      "##igu": 5972,
      "Up": 5973,
      "Conn": 5974,
      "episode": 5975,
      "Ven": 5976,
      "foc": 5977,
      "vot": 5978,
      "Cy": 5979,
      "sen": 5980,
      "##igte": 5981,
      "début": 5982,
      "sulla": 5983,
      "##iglia": 5984,
      "Cam": 5985,
      "##well": 5986,
      "52": 5987,
      "##lete": 5988,
      "Argent": 5989,
      "##uments": 5990,
      "jud": 5991,
      "Pennsylvan": 5992,
      "Portug": 5993,
      "##ema": 5994,
      "##ellschaft": 5995,
      "ep": 5996,
      "possib": 5997,
      "van": 5998,
      "autre": 5999,
      "na": 6000,
      "##ünst": 6001,
      "französ": 6002,
      "175": 6003,
      "Commission": 6004,
      "47": 6005,
      "applic": 6006,
      "représ": 6007,
      "##wan": 6008,
      "##gn": 6009,
      "##abil": 6010,
      "Ord": 6011,
      "Dal": 6012,
      "##bt": 6013,
      "##lagen": 6014,
      "Michel": 6015,
      "##mond": 6016,
      "Mah": 6017,
      "available": 6018,
      "Navy": 6019,
      "##essen": 6020,
      "##win": 6021,
      "##asi": 6022,
      "Arab": 6023,
      "mem": 6024,
      "mentre": 6025,
      "media": 6026,
      "##pression": 6027,
      "##ération": 6028,
      "##omot": 6029,
      "##ades": 6030,
      "Two": 6031,
      "culture": 6032,
      "##lies": 6033,
      "product": 6034,
      "##oment": 6035,
      "Historic": 6036,
      "female": 6037,
      "##los": 6038,
      "##grund": 6039,
      "propri": 6040,
      "##atory": 6041,
      "rif": 6042,
      "aud": 6043,
      "Tal": 6044,
      "##chan": 6045,
      "mother": 6046,
      "Def": 6047,
      "material": 6048,
      "Rod": 6049,
      "##abeth": 6050,
      "Rog": 6051,
      "51": 6052,
      "##omo": 6053,
      "##anted": 6054,
      "gab": 6055,
      "43": 6056,
      "46": 6057,
      "##indet": 6058,
      "Ru": 6059,
      "1919": 6060,
      "quart": 6061,
      "guerre": 6062,
      "##straße": 6063,
      "Plan": 6064,
      "how": 6065,
      "strong": 6066,
      "1929": 6067,
      "you": 6068,
      "daughter": 6069,
      "Haw": 6070,
      "inform": 6071,
      "##ergy": 6072,
      "1928": 6073,
      "##iani": 6074,
      "Disc": 6075,
      "##ielle": 6076,
      "##èce": 6077,
      "trib": 6078,
      "##etta": 6079,
      "young": 6080,
      "Inc": 6081,
      "fine": 6082,
      "##org": 6083,
      "##öglich": 6084,
      "sports": 6085,
      "##igital": 6086,
      "##öm": 6087,
      "Franç": 6088,
      "##reen": 6089,
      "stage": 6090,
      "Komm": 6091,
      "police": 6092,
      "Gh": 6093,
      "##stead": 6094,
      "politique": 6095,
      "##esc": 6096,
      "ball": 6097,
      "##alen": 6098,
      "buildings": 6099,
      "Herz": 6100,
      "##hire": 6101,
      "Meister": 6102,
      "##uls": 6103,
      "Sav": 6104,
      "deter": 6105,
      "Gard": 6106,
      "surv": 6107,
      "Lor": 6108,
      "##urb": 6109,
      "1932": 6110,
      "Kat": 6111,
      "past": 6112,
      "Edward": 6113,
      "respect": 6114,
      "notamment": 6115,
      "einz": 6116,
      "across": 6117,
      "htt": 6118,
      "Politiker": 6119,
      "Brand": 6120,
      "##airs": 6121,
      "Stan": 6122,
      "##pro": 6123,
      "Ul": 6124,
      "sus": 6125,
      "##falls": 6126,
      "Kreis": 6127,
      "Unis": 6128,
      "##wahl": 6129,
      "rank": 6130,
      "##onte": 6131,
      "market": 6132,
      "Diese": 6133,
      "##steller": 6134,
      "Final": 6135,
      "Syn": 6136,
      "Centre": 6137,
      "##ishop": 6138,
      "##ills": 6139,
      "##lauf": 6140,
      "süd": 6141,
      "Most": 6142,
      "companies": 6143,
      "##pite": 6144,
      "XV": 6145,
      "titre": 6146,
      "##hab": 6147,
      "##oon": 6148,
      "medal": 6149,
      "Series": 6150,
      "never": 6151,
      "##alité": 6152,
      "##ession": 6153,
      "frequ": 6154,
      "successful": 6155,
      "##ensive": 6156,
      "Prim": 6157,
      "##istry": 6158,
      "Steph": 6159,
      "##luss": 6160,
      "größ": 6161,
      "domin": 6162,
      "org": 6163,
      "##ought": 6164,
      "##ecess": 6165,
      "Kong": 6166,
      "##ächst": 6167,
      "75": 6168,
      "##obile": 6169,
      "financ": 6170,
      "##orpor": 6171,
      "hor": 6172,
      "région": 6173,
      "können": 6174,
      "##utch": 6175,
      "Scot": 6176,
      "novembre": 6177,
      "donn": 6178,
      "Florida": 6179,
      "performed": 6180,
      "teil": 6181,
      "##irtschaft": 6182,
      "arg": 6183,
      "exc": 6184,
      "fil": 6185,
      "Major": 6186,
      "##ji": 6187,
      "##ilities": 6188,
      "specific": 6189,
      "bien": 6190,
      "##ask": 6191,
      "##zil": 6192,
      "suite": 6193,
      "55": 6194,
      "civil": 6195,
      "campaign": 6196,
      "Ram": 6197,
      "letz": 6198,
      "Pennsylvania": 6199,
      "##mark": 6200,
      "1st": 6201,
      "connexes": 6202,
      "##über": 6203,
      "beginn": 6204,
      "Over": 6205,
      "##ention": 6206,
      "cha": 6207,
      "erhielt": 6208,
      "beiden": 6209,
      "Soviet": 6210,
      "Österreich": 6211,
      "Hug": 6212,
      "Mexico": 6213,
      "commercial": 6214,
      "continu": 6215,
      "Winter": 6216,
      "Lim": 6217,
      "##annel": 6218,
      "origine": 6219,
      "must": 6220,
      "dévelop": 6221,
      "Weit": 6222,
      "sop": 6223,
      "educ": 6224,
      "Repr": 6225,
      "Wild": 6226,
      "##BA": 6227,
      "Government": 6228,
      "##ruction": 6229,
      "away": 6230,
      "##bahn": 6231,
      "Kan": 6232,
      "64": 6233,
      "Ga": 6234,
      "##chel": 6235,
      "Ca": 6236,
      "ol": 6237,
      "anno": 6238,
      "books": 6239,
      "Laur": 6240,
      "##schließ": 6241,
      "##ât": 6242,
      "##bon": 6243,
      "##icy": 6244,
      "Hein": 6245,
      "Found": 6246,
      "##mals": 6247,
      "##ppe": 6248,
      "mur": 6249,
      "##äsident": 6250,
      "##gra": 6251,
      "eigen": 6252,
      "attra": 6253,
      "##fore": 6254,
      "##ribu": 6255,
      "Olympic": 6256,
      "Province": 6257,
      "Guer": 6258,
      "##han": 6259,
      "chap": 6260,
      "##pper": 6261,
      "1931": 6262,
      "personal": 6263,
      "##80": 6264,
      "propert": 6265,
      "nome": 6266,
      "Bol": 6267,
      "Back": 6268,
      "##ront": 6269,
      "sound": 6270,
      "lieu": 6271,
      "Komp": 6272,
      "##icher": 6273,
      "##roy": 6274,
      "spiel": 6275,
      "##âte": 6276,
      "possible": 6277,
      "Giov": 6278,
      "Albert": 6279,
      "lat": 6280,
      "originally": 6281,
      "includes": 6282,
      "ir": 6283,
      "dess": 6284,
      "Card": 6285,
      "##itude": 6286,
      "Kenn": 6287,
      "##abri": 6288,
      "aircraft": 6289,
      "##car": 6290,
      "paint": 6291,
      "taken": 6292,
      "##tempt": 6293,
      "mis": 6294,
      "designed": 6295,
      "private": 6296,
      "##onym": 6297,
      "##ector": 6298,
      "##pf": 6299,
      "collection": 6300,
      "##board": 6301,
      "transport": 6302,
      "##ähl": 6303,
      "##endre": 6304,
      "Ta": 6305,
      "McC": 6306,
      "##px": 6307,
      "brother": 6308,
      "Turn": 6309,
      "##anni": 6310,
      "##egn": 6311,
      "features": 6312,
      "vign": 6313,
      "##ourg": 6314,
      "Fahr": 6315,
      "##het": 6316,
      "orient": 6317,
      "reb": 6318,
      "1927": 6319,
      "section": 6320,
      "##aka": 6321,
      "##igur": 6322,
      "lég": 6323,
      "##rage": 6324,
      "##alle": 6325,
      "##ious": 6326,
      "Maur": 6327,
      "sat": 6328,
      "##itation": 6329,
      "stata": 6330,
      "killed": 6331,
      "Sem": 6332,
      "Einwohn": 6333,
      "1924": 6334,
      "Az": 6335,
      "##ît": 6336,
      "consist": 6337,
      "mm": 6338,
      "Iran": 6339,
      "Indust": 6340,
      "largest": 6341,
      "Cross": 6342,
      "##esto": 6343,
      "hoch": 6344,
      "Burg": 6345,
      "##aged": 6346,
      "Herm": 6347,
      "##bbe": 6348,
      "frü": 6349,
      "religi": 6350,
      "Matt": 6351,
      "##hein": 6352,
      "##head": 6353,
      "##rer": 6354,
      "Bab": 6355,
      "dép": 6356,
      "diesem": 6357,
      "roy": 6358,
      "Sun": 6359,
      "##ispiel": 6360,
      "Sant": 6361,
      "##krieg": 6362,
      "1900": 6363,
      "calc": 6364,
      "model": 6365,
      "Bla": 6366,
      "regular": 6367,
      "1925": 6368,
      "##elling": 6369,
      "Research": 6370,
      "##ucht": 6371,
      "quale": 6372,
      "Carolina": 6373,
      "Irish": 6374,
      "once": 6375,
      "Young": 6376,
      "heav": 6377,
      "statt": 6378,
      "##AT": 6379,
      "##ww": 6380,
      "##ruppo": 6381,
      "Pass": 6382,
      "##ufact": 6383,
      "##ends": 6384,
      "dessen": 6385,
      "months": 6386,
      "enf": 6387,
      "ehemal": 6388,
      "##oten": 6389,
      "concl": 6390,
      "tax": 6391,
      "Nieder": 6392,
      "italien": 6393,
      "##mo": 6394,
      "gar": 6395,
      "fino": 6396,
      "##ietà": 6397,
      "gave": 6398,
      "Russia": 6399,
      "##vest": 6400,
      "concern": 6401,
      "force": 6402,
      "Stad": 6403,
      "##ension": 6404,
      "Rome": 6405,
      "gibt": 6406,
      "##chester": 6407,
      "1912": 6408,
      "erw": 6409,
      "##11": 6410,
      "##izioni": 6411,
      "tor": 6412,
      "##isher": 6413,
      "transfer": 6414,
      "Mond": 6415,
      "##60": 6416,
      "Kil": 6417,
      "##anten": 6418,
      "différ": 6419,
      "mondiale": 6420,
      "mission": 6421,
      "Professor": 6422,
      "Assemb": 6423,
      "verschied": 6424,
      "##kson": 6425,
      "Secret": 6426,
      "Rem": 6427,
      "##äude": 6428,
      "contract": 6429,
      "Schul": 6430,
      "##mission": 6431,
      "Lord": 6432,
      "Mu": 6433,
      "##hin": 6434,
      "##ception": 6435,
      "##edia": 6436,
      "gouver": 6437,
      "Home": 6438,
      "Hu": 6439,
      "##thur": 6440,
      "currently": 6441,
      "followed": 6442,
      "##rate": 6443,
      "Wales": 6444,
      "##arian": 6445,
      "secondo": 6446,
      "meth": 6447,
      "www": 6448,
      "Fa": 6449,
      "##zy": 6450,
      "##ischof": 6451,
      "##pisode": 6452,
      "poet": 6453,
      "##ronze": 6454,
      "##imate": 6455,
      "background": 6456,
      "altern": 6457,
      "transl": 6458,
      "1926": 6459,
      "goal": 6460,
      "##can": 6461,
      "administrat": 6462,
      "Italy": 6463,
      "##rieben": 6464,
      "finished": 6465,
      "attempt": 6466,
      "contemp": 6467,
      "Fußballspieler": 6468,
      "##ktur": 6469,
      "altri": 6470,
      "Jones": 6471,
      "##III": 6472,
      "##iges": 6473,
      "Ess": 6474,
      "able": 6475,
      "multip": 6476,
      "##imin": 6477,
      "##führt": 6478,
      "course": 6479,
      "Et": 6480,
      "Après": 6481,
      "Hy": 6482,
      "qualif": 6483,
      "Social": 6484,
      "seven": 6485,
      "Line": 6486,
      "Jer": 6487,
      "study": 6488,
      "britann": 6489,
      "1922": 6490,
      "Bost": 6491,
      "##most": 6492,
      "abb": 6493,
      "featured": 6494,
      "Geme": 6495,
      "président": 6496,
      "##usse": 6497,
      "##ansas": 6498,
      "anti": 6499,
      "##teurs": 6500,
      "change": 6501,
      "Serie": 6502,
      "cred": 6503,
      "Brazil": 6504,
      "ligne": 6505,
      "##riv": 6506,
      "Europa": 6507,
      "rim": 6508,
      "Ross": 6509,
      "##auspieler": 6510,
      "Pak": 6511,
      "Corn": 6512,
      "##reib": 6513,
      "tru": 6514,
      "eight": 6515,
      "##istic": 6516,
      "relig": 6517,
      "150": 6518,
      "##venue": 6519,
      "88": 6520,
      "Championships": 6521,
      "faire": 6522,
      "##vo": 6523,
      "agre": 6524,
      "##issement": 6525,
      "nar": 6526,
      "deutschen": 6527,
      "Northern": 6528,
      "Congress": 6529,
      "##rique": 6530,
      "##ète": 6531,
      "resident": 6532,
      "##icc": 6533,
      "1921": 6534,
      "relat": 6535,
      "Bon": 6536,
      "seen": 6537,
      "Parte": 6538,
      "Jacques": 6539,
      "Gestorben": 6540,
      "##erk": 6541,
      "##orso": 6542,
      "##12": 6543,
      "adapt": 6544,
      "listed": 6545,
      "training": 6546,
      "##NA": 6547,
      "health": 6548,
      "Vi": 6549,
      "selbst": 6550,
      "##antic": 6551,
      "related": 6552,
      "pay": 6553,
      "suoi": 6554,
      "François": 6555,
      "1910": 6556,
      "##ency": 6557,
      "thé": 6558,
      "Hong": 6559,
      "##yan": 6560,
      "singer": 6561,
      "awarded": 6562,
      "400": 6563,
      "Station": 6564,
      "1917": 6565,
      "Ho": 6566,
      "##ee": 6567,
      "publi": 6568,
      "mai": 6569,
      "Rac": 6570,
      "nah": 6571,
      "##itung": 6572,
      "Uk": 6573,
      "Francisco": 6574,
      "mount": 6575,
      "capital": 6576,
      "préc": 6577,
      "##iesa": 6578,
      "Ala": 6579,
      "inn": 6580,
      "##isa": 6581,
      "Its": 6582,
      "sac": 6583,
      "##osta": 6584,
      "science": 6585,
      "principale": 6586,
      "##hemat": 6587,
      "siècle": 6588,
      "Gren": 6589,
      "Rud": 6590,
      "politician": 6591,
      "Official": 6592,
      "Since": 6593,
      "##emper": 6594,
      "leurs": 6595,
      "Jug": 6596,
      "##ulpt": 6597,
      "celeb": 6598,
      "inj": 6599,
      "Although": 6600,
      "Kultur": 6601,
      "##rey": 6602,
      "recogn": 6603,
      "thumb": 6604,
      "Ham": 6605,
      "leading": 6606,
      "##erst": 6607,
      "fün": 6608,
      "##ymn": 6609,
      "1923": 6610,
      "##osten": 6611,
      "##halt": 6612,
      "53": 6613,
      "Lar": 6614,
      "partir": 6615,
      "##adel": 6616,
      "Ari": 6617,
      "tournament": 6618,
      "roman": 6619,
      "leader": 6620,
      "artists": 6621,
      "Auch": 6622,
      "range": 6623,
      "bekannt": 6624,
      "##ength": 6625,
      "kur": 6626,
      "##9E": 6627,
      "##fic": 6628,
      "lung": 6629,
      "fle": 6630,
      "Deutscher": 6631,
      "##asch": 6632,
      "maggi": 6633,
      "Register": 6634,
      "remained": 6635,
      "throughout": 6636,
      "##istics": 6637,
      "Memb": 6638,
      "Walter": 6639,
      "Frau": 6640,
      "whe": 6641,
      "##urity": 6642,
      "suggest": 6643,
      "##anks": 6644,
      "Good": 6645,
      "Landkreis": 6646,
      "Live": 6647,
      "opera": 6648,
      "Cre": 6649,
      "##ingham": 6650,
      "score": 6651,
      "##etts": 6652,
      "##unächst": 6653,
      "Seine": 6654,
      "don": 6655,
      "##hood": 6656,
      "Mr": 6657,
      "winning": 6658,
      "ca": 6659,
      "##IS": 6660,
      "Imp": 6661,
      "shows": 6662,
      "département": 6663,
      "##isti": 6664,
      "dello": 6665,
      "asp": 6666,
      "##orter": 6667,
      "constitu": 6668,
      "##ricket": 6669,
      "Zu": 6670,
      "Dev": 6671,
      "letter": 6672,
      "##aya": 6673,
      "Oxford": 6674,
      "Committee": 6675,
      "##furt": 6676,
      "Institut": 6677,
      "fon": 6678,
      "significant": 6679,
      "Liber": 6680,
      "##amin": 6681,
      "establishments": 6682,
      "##erne": 6683,
      "dedic": 6684,
      "Aff": 6685,
      "organis": 6686,
      "##ismo": 6687,
      "##aves": 6688,
      "Williams": 6689,
      "Familie": 6690,
      "##spiel": 6691,
      "Volks": 6692,
      "standard": 6693,
      "piano": 6694,
      "Pour": 6695,
      "Personn": 6696,
      "Kent": 6697,
      "usually": 6698,
      "put": 6699,
      "1913": 6700,
      "##esa": 6701,
      "Boston": 6702,
      "Parliament": 6703,
      "Premier": 6704,
      "##igue": 6705,
      "##igned": 6706,
      "vignette": 6707,
      "##atique": 6708,
      "stesso": 6709,
      "minist": 6710,
      "tous": 6711,
      "arbeit": 6712,
      "XX": 6713,
      "canc": 6714,
      "##örd": 6715,
      "##iac": 6716,
      "tard": 6717,
      "writer": 6718,
      "Mittel": 6719,
      "structure": 6720,
      "##arsi": 6721,
      "##name": 6722,
      "##schule": 6723,
      "Sohn": 6724,
      "Chief": 6725,
      "families": 6726,
      "##lig": 6727,
      "Time": 6728,
      "Fernseh": 6729,
      "Times": 6730,
      "##des": 6731,
      "Battle": 6732,
      "##uti": 6733,
      "##ersey": 6734,
      "##pped": 6735,
      "Fu": 6736,
      "histoire": 6737,
      "college": 6738,
      "Tag": 6739,
      "##alys": 6740,
      "##lah": 6741,
      "54": 6742,
      "##illy": 6743,
      "##indi": 6744,
      "sche": 6745,
      "Under": 6746,
      "approxim": 6747,
      "dai": 6748,
      "##uite": 6749,
      "##roll": 6750,
      "Joueur": 6751,
      "##rsg": 6752,
      "introduced": 6753,
      "stagione": 6754,
      "magazine": 6755,
      "##fall": 6756,
      "card": 6757,
      "##ütz": 6758,
      "upon": 6759,
      "Dub": 6760,
      "##FL": 6761,
      "##dy": 6762,
      "countries": 6763,
      "article": 6764,
      "##asing": 6765,
      "##ny": 6766,
      "complex": 6767,
      "##ivamente": 6768,
      "Ret": 6769,
      "kle": 6770,
      "##do": 6771,
      "Non": 6772,
      "hanno": 6773,
      "Roma": 6774,
      "##nehmer": 6775,
      "##hrer": 6776,
      "table": 6777,
      "spéc": 6778,
      "##har": 6779,
      "Jon": 6780,
      "##respond": 6781,
      "Nik": 6782,
      "Tar": 6783,
      "wen": 6784,
      "wind": 6785,
      "Ohio": 6786,
      "plant": 6787,
      "states": 6788,
      "Blue": 6789,
      "fight": 6790,
      "eventually": 6791,
      "##owers": 6792,
      "Anth": 6793,
      "Little": 6794,
      "pred": 6795,
      "19th": 6796,
      "Antonio": 6797,
      "État": 6798,
      "##onto": 6799,
      "Staats": 6800,
      "involved": 6801,
      "##ability": 6802,
      "rights": 6803,
      "Werk": 6804,
      "##cken": 6805,
      "Space": 6806,
      "direction": 6807,
      "ap": 6808,
      "##zug": 6809,
      "##itzer": 6810,
      "quando": 6811,
      "Tw": 6812,
      "secolo": 6813,
      "ath": 6814,
      "hin": 6815,
      "##ands": 6816,
      "ancien": 6817,
      "minutes": 6818,
      "##atura": 6819,
      "accept": 6820,
      "##ered": 6821,
      "ersch": 6822,
      "either": 6823,
      "##bew": 6824,
      "encore": 6825,
      "sia": 6826,
      "##ctive": 6827,
      "Hung": 6828,
      "Id": 6829,
      "Ko": 6830,
      "Namen": 6831,
      "Heinrich": 6832,
      "interpret": 6833,
      "basketball": 6834,
      "##ruppen": 6835,
      "size": 6836,
      "##bury": 6837,
      "##äß": 6838,
      "quatre": 6839,
      "Zent": 6840,
      "railway": 6841,
      "redu": 6842,
      "trat": 6843,
      "added": 6844,
      "Girl": 6845,
      "semp": 6846,
      "above": 6847,
      "Verw": 6848,
      "Chap": 6849,
      "Éc": 6850,
      "##achsen": 6851,
      "ents": 6852,
      "Prince": 6853,
      "opt": 6854,
      "##ex": 6855,
      "hockey": 6856,
      "discover": 6857,
      "gard": 6858,
      "Engine": 6859,
      "représent": 6860,
      "prod": 6861,
      "œuv": 6862,
      "devient": 6863,
      "##schn": 6864,
      "forme": 6865,
      "Board": 6866,
      "damit": 6867,
      "nationale": 6868,
      "##oche": 6869,
      "##len": 6870,
      "##bi": 6871,
      "Night": 6872,
      "59": 6873,
      "illust": 6874,
      "##uring": 6875,
      "replaced": 6876,
      "Illin": 6877,
      "contribut": 6878,
      "treat": 6879,
      "Kais": 6880,
      "moment": 6881,
      "##illet": 6882,
      "##ares": 6883,
      "diss": 6884,
      "##ründet": 6885,
      "##esta": 6886,
      "Kr": 6887,
      "##kn": 6888,
      "Win": 6889,
      "57": 6890,
      "présent": 6891,
      "##ftware": 6892,
      "Brig": 6893,
      "##met": 6894,
      "##fü": 6895,
      "##ador": 6896,
      "durante": 6897,
      "mét": 6898,
      "hard": 6899,
      "##olk": 6900,
      "##uff": 6901,
      "##verse": 6902,
      "##omes": 6903,
      "Flug": 6904,
      "board": 6905,
      "##annte": 6906,
      "##writ": 6907,
      "prison": 6908,
      "##ania": 6909,
      "close": 6910,
      "##ulty": 6911,
      "vocals": 6912,
      "1915": 6913,
      "sei": 6914,
      "extens": 6915,
      "##acc": 6916,
      "Show": 6917,
      "key": 6918,
      "##rief": 6919,
      "##eds": 6920,
      "##ionnat": 6921,
      "##19": 6922,
      "units": 6923,
      "subsequ": 6924,
      "learn": 6925,
      "If": 6926,
      "comune": 6927,
      "pan": 6928,
      "Columbia": 6929,
      "Wahl": 6930,
      "nouveau": 6931,
      "Frances": 6932,
      "pendant": 6933,
      "##road": 6934,
      "1911": 6935,
      "soit": 6936,
      "begann": 6937,
      "capac": 6938,
      "agric": 6939,
      "##aters": 6940,
      "##rument": 6941,
      "Queen": 6942,
      "Ces": 6943,
      "##rot": 6944,
      "Game": 6945,
      "##ählt": 6946,
      "sehr": 6947,
      "pain": 6948,
      "keine": 6949,
      "competition": 6950,
      "actress": 6951,
      "##ichi": 6952,
      "##minister": 6953,
      "mean": 6954,
      "accomp": 6955,
      "night": 6956,
      "Bow": 6957,
      "subst": 6958,
      "bomb": 6959,
      "Hann": 6960,
      "##ims": 6961,
      "##prise": 6962,
      "Greek": 6963,
      "Civil": 6964,
      "correl": 6965,
      "critic": 6966,
      "##benfalls": 6967,
      "Michigan": 6968,
      "Bell": 6969,
      "Inn": 6970,
      "appel": 6971,
      "Bou": 6972,
      "Illinois": 6973,
      "##esen": 6974,
      "least": 6975,
      "minor": 6976,
      "##bed": 6977,
      "##ving": 6978,
      "Mic": 6979,
      "fils": 6980,
      "fourth": 6981,
      "##lace": 6982,
      "##25": 6983,
      "Leon": 6984,
      "##hren": 6985,
      "length": 6986,
      "Cin": 6987,
      "56": 6988,
      "##lé": 6989,
      "Dor": 6990,
      "##ölker": 6991,
      "farm": 6992,
      "scored": 6993,
      "interest": 6994,
      "clos": 6995,
      "##rée": 6996,
      "cause": 6997,
      "##ido": 6998,
      "##orio": 6999,
      "achie": 7000,
      "Deutschen": 7001,
      "provided": 7002,
      "Det": 7003,
      "##yant": 7004,
      "Four": 7005,
      "loss": 7006,
      "Ken": 7007,
      "Tok": 7008,
      "Name": 7009,
      "pen": 7010,
      "Joe": 7011,
      "method": 7012,
      "industri": 7013,
      "##zig": 7014,
      "##enna": 7015,
      "degree": 7016,
      "Stra": 7017,
      "Career": 7018,
      "Mol": 7019,
      "##ieu": 7020,
      "Pacific": 7021,
      "regard": 7022,
      "Schm": 7023,
      "progress": 7024,
      "know": 7025,
      "individu": 7026,
      "pra": 7027,
      "Titel": 7028,
      "##lan": 7029,
      "##DR": 7030,
      "##aise": 7031,
      "##overs": 7032,
      "Book": 7033,
      "commission": 7034,
      "Lebens": 7035,
      "Personen": 7036,
      "dipl": 7037,
      "##iting": 7038,
      "##hö": 7039,
      "##isions": 7040,
      "##igten": 7041,
      "##schafts": 7042,
      "travel": 7043,
      "Valley": 7044,
      "##zahl": 7045,
      "ihren": 7046,
      "##spap": 7047,
      "restaur": 7048,
      "seguito": 7049,
      "comun": 7050,
      "certain": 7051,
      "deren": 7052,
      "##ES": 7053,
      "##15": 7054,
      "active": 7055,
      "##AC": 7056,
      "Hrsg": 7057,
      "##tete": 7058,
      "174": 7059,
      "##schrift": 7060,
      "##achus": 7061,
      "##âteau": 7062,
      "##abin": 7063,
      "moins": 7064,
      "entstand": 7065,
      "provinc": 7066,
      "space": 7067,
      "Barb": 7068,
      "homme": 7069,
      "##aden": 7070,
      "deutsche": 7071,
      "##pts": 7072,
      "issue": 7073,
      "occur": 7074,
      "results": 7075,
      "##wicklung": 7076,
      "##acks": 7077,
      "Simon": 7078,
      "termin": 7079,
      "susp": 7080,
      "##quel": 7081,
      "Kirchen": 7082,
      "Dutch": 7083,
      "##rought": 7084,
      "amerikanischer": 7085,
      "Southern": 7086,
      "Prof": 7087,
      "tent": 7088,
      "##shire": 7089,
      "That": 7090,
      "Herr": 7091,
      "capit": 7092,
      "##âtre": 7093,
      "Sche": 7094,
      "##ewe": 7095,
      "Build": 7096,
      "writers": 7097,
      "##dorf": 7098,
      "bzw": 7099,
      "pp": 7100,
      "##aug": 7101,
      "1916": 7102,
      "##ennen": 7103,
      "Eins": 7104,
      "##people": 7105,
      "##rime": 7106,
      "##edeut": 7107,
      "meille": 7108,
      "Head": 7109,
      "natural": 7110,
      "##vin": 7111,
      "note": 7112,
      "bur": 7113,
      "##imat": 7114,
      "Johnson": 7115,
      "2nd": 7116,
      "##ril": 7117,
      "Victor": 7118,
      "chef": 7119,
      "befindet": 7120,
      "mill": 7121,
      "integ": 7122,
      "##aient": 7123,
      "News": 7124,
      "##änder": 7125,
      "écrit": 7126,
      "obt": 7127,
      "##mir": 7128,
      "double": 7129,
      "owned": 7130,
      "sv": 7131,
      "Jersey": 7132,
      "##ieme": 7133,
      "Broad": 7134,
      "##enez": 7135,
      "spir": 7136,
      "##utter": 7137,
      "##po": 7138,
      "##change": 7139,
      "aveva": 7140,
      "##schied": 7141,
      "meas": 7142,
      "Jeff": 7143,
      "##ieux": 7144,
      "Vinc": 7145,
      "clubs": 7146,
      "##18": 7147,
      "EP": 7148,
      "nomm": 7149,
      "Auß": 7150,
      "stated": 7151,
      "Theater": 7152,
      "##osse": 7153,
      "zunächst": 7154,
      "liber": 7155,
      "Ali": 7156,
      "color": 7157,
      "erano": 7158,
      "fast": 7159,
      "XI": 7160,
      "##mont": 7161,
      "##onse": 7162,
      "##gebiet": 7163,
      "adopt": 7164,
      "##erman": 7165,
      "##rang": 7166,
      "Verb": 7167,
      "saw": 7168,
      "Elect": 7169,
      "maint": 7170,
      "box": 7171,
      "placed": 7172,
      "Arthur": 7173,
      "Andrew": 7174,
      "Scottish": 7175,
      "##ourd": 7176,
      "##ho": 7177,
      "Enter": 7178,
      "Transport": 7179,
      "plat": 7180,
      "Hamburg": 7181,
      "cell": 7182,
      "##gestellt": 7183,
      "foot": 7184,
      "Serb": 7185,
      "##nahme": 7186,
      "Of": 7187,
      "Tru": 7188,
      "reach": 7189,
      "Kam": 7190,
      "58": 7191,
      "Qual": 7192,
      "##aps": 7193,
      "##burgh": 7194,
      "Jewish": 7195,
      "Wald": 7196,
      "##äus": 7197,
      "##osph": 7198,
      "péri": 7199,
      "Mov": 7200,
      "weitere": 7201,
      "##70": 7202,
      "##omer": 7203,
      "Hard": 7204,
      "##ão": 7205,
      "cm": 7206,
      "Real": 7207,
      "1908": 7208,
      "##lass": 7209,
      "##asy": 7210,
      "Ever": 7211,
      "##vier": 7212,
      "##di": 7213,
      "Sab": 7214,
      "Ep": 7215,
      "Website": 7216,
      "fiction": 7217,
      "Massachus": 7218,
      "molto": 7219,
      "characters": 7220,
      "170": 7221,
      "Pra": 7222,
      "Giovanni": 7223,
      "missing": 7224,
      "erreich": 7225,
      "ohne": 7226,
      "##inson": 7227,
      "tal": 7228,
      "Golden": 7229,
      "Fil": 7230,
      "Massachusetts": 7231,
      "exhib": 7232,
      "feder": 7233,
      "télé": 7234,
      "edition": 7235,
      "Islam": 7236,
      "Thr": 7237,
      "Later": 7238,
      "Special": 7239,
      "Mid": 7240,
      "MP": 7241,
      "##uno": 7242,
      "Staff": 7243,
      "river": 7244,
      "Conserv": 7245,
      "propos": 7246,
      "##aval": 7247,
      "Jackson": 7248,
      "Alb": 7249,
      "85": 7250,
      "Bang": 7251,
      "Bü": 7252,
      "##auc": 7253,
      "développ": 7254,
      "Way": 7255,
      "Mike": 7256,
      "Anna": 7257,
      "bal": 7258,
      "##othe": 7259,
      "tip": 7260,
      "Ludwig": 7261,
      "##obal": 7262,
      "whose": 7263,
      "SS": 7264,
      "Spain": 7265,
      "##phy": 7266,
      "reached": 7267,
      "parts": 7268,
      "vent": 7269,
      "pie": 7270,
      "my": 7271,
      "##ients": 7272,
      "gold": 7273,
      "manufact": 7274,
      "##avia": 7275,
      "jour": 7276,
      "##13": 7277,
      "##olas": 7278,
      "ly": 7279,
      "Asian": 7280,
      "actor": 7281,
      "##amo": 7282,
      "##érieur": 7283,
      "Cop": 7284,
      "source": 7285,
      "Places": 7286,
      "Kind": 7287,
      "##tere": 7288,
      "stor": 7289,
      "Dorf": 7290,
      "##igr": 7291,
      "tempo": 7292,
      "##ometimes": 7293,
      "network": 7294,
      "##fas": 7295,
      "Bibliographie": 7296,
      "##agli": 7297,
      "train": 7298,
      "fand": 7299,
      "##roc": 7300,
      "##ateurs": 7301,
      "Test": 7302,
      "Medal": 7303,
      "conte": 7304,
      "volta": 7305,
      "lic": 7306,
      "Bere": 7307,
      "singles": 7308,
      "##ût": 7309,
      "Rou": 7310,
      "##ordin": 7311,
      "##itä": 7312,
      "etc": 7313,
      "Meter": 7314,
      "Hil": 7315,
      "fall": 7316,
      "provide": 7317,
      "stri": 7318,
      "Asia": 7319,
      "Nou": 7320,
      "##yo": 7321,
      "Victoria": 7322,
      "say": 7323,
      "episod": 7324,
      "Econom": 7325,
      "champion": 7326,
      "##OS": 7327,
      "abit": 7328,
      "civ": 7329,
      "Field": 7330,
      "producer": 7331,
      "principal": 7332,
      "##ultural": 7333,
      "seasons": 7334,
      "##23": 7335,
      "##ozial": 7336,
      "##ader": 7337,
      "cho": 7338,
      "Leip": 7339,
      "Alexand": 7340,
      "##now": 7341,
      "##appen": 7342,
      "census": 7343,
      "systems": 7344,
      "Bos": 7345,
      "girl": 7346,
      "spr": 7347,
      "park": 7348,
      "##illon": 7349,
      "##arily": 7350,
      "consid": 7351,
      "organiz": 7352,
      "Deb": 7353,
      "household": 7354,
      "##thn": 7355,
      "##heast": 7356,
      "Director": 7357,
      "Tay": 7358,
      "decided": 7359,
      "##chte": 7360,
      "Jes": 7361,
      "Coll": 7362,
      "hit": 7363,
      "argent": 7364,
      "rather": 7365,
      "categor": 7366,
      "object": 7367,
      "##onie": 7368,
      "championship": 7369,
      "##hausen": 7370,
      "Gott": 7371,
      "##dam": 7372,
      "Geg": 7373,
      "SP": 7374,
      "necess": 7375,
      "exemp": 7376,
      "##onder": 7377,
      "auß": 7378,
      "gioc": 7379,
      "steht": 7380,
      "##range": 7381,
      "Stein": 7382,
      "##öst": 7383,
      "Conf": 7384,
      "Develop": 7385,
      "plays": 7386,
      "##vard": 7387,
      "Phys": 7388,
      "Alp": 7389,
      "Rang": 7390,
      "ouv": 7391,
      "89": 7392,
      "##14": 7393,
      "##ionato": 7394,
      "##schul": 7395,
      "fünf": 7396,
      "##16": 7397,
      "##utenant": 7398,
      "Bürger": 7399,
      "previously": 7400,
      "située": 7401,
      "psych": 7402,
      "russ": 7403,
      "worden": 7404,
      "behind": 7405,
      "##raine": 7406,
      "bene": 7407,
      "Sin": 7408,
      "##ogo": 7409,
      "Hay": 7410,
      "value": 7411,
      "21st": 7412,
      "##ami": 7413,
      "island": 7414,
      "Lew": 7415,
      "##eman": 7416,
      "pouv": 7417,
      "deb": 7418,
      "Greg": 7419,
      "circa": 7420,
      "##enda": 7421,
      "investig": 7422,
      "formation": 7423,
      "gruppo": 7424,
      "##érit": 7425,
      "Menschen": 7426,
      "99": 7427,
      "gewann": 7428,
      "Circ": 7429,
      "northern": 7430,
      "Schrift": 7431,
      "##fois": 7432,
      "reve": 7433,
      "crim": 7434,
      "##kirche": 7435,
      "sy": 7436,
      "nouvelle": 7437,
      "chem": 7438,
      "sup": 7439,
      "southern": 7440,
      "##aga": 7441,
      "##riere": 7442,
      "komm": 7443,
      "Syd": 7444,
      "Siehe": 7445,
      "##AF": 7446,
      "Child": 7447,
      "cart": 7448,
      "##unes": 7449,
      "reading": 7450,
      "instead": 7451,
      "173": 7452,
      "##house": 7453,
      "##punkt": 7454,
      "##lying": 7455,
      "##fort": 7456,
      "Mess": 7457,
      "##olar": 7458,
      "Theatre": 7459,
      "##ication": 7460,
      "emer": 7461,
      "Georgia": 7462,
      "questa": 7463,
      "##iser": 7464,
      "##ède": 7465,
      "bank": 7466,
      "Rev": 7467,
      "celui": 7468,
      "DV": 7469,
      "##agna": 7470,
      "##ounter": 7471,
      "jap": 7472,
      "Cambridge": 7473,
      "italiano": 7474,
      "1905": 7475,
      "ger": 7476,
      "relationship": 7477,
      "Sym": 7478,
      "##tz": 7479,
      "Chris": 7480,
      "##mus": 7481,
      "église": 7482,
      "Rück": 7483,
      "##rin": 7484,
      "ebenfalls": 7485,
      "Bec": 7486,
      "##gypt": 7487,
      "Han": 7488,
      "63": 7489,
      "communes": 7490,
      "deal": 7491,
      "Water": 7492,
      "estim": 7493,
      "##lang": 7494,
      "Death": 7495,
      "##quar": 7496,
      "Corpor": 7497,
      "##chestra": 7498,
      "##wald": 7499,
      "purch": 7500,
      "##ned": 7501,
      "va": 7502,
      "Sain": 7503,
      "Corps": 7504,
      "draw": 7505,
      "Athlet": 7506,
      "neigh": 7507,
      "##imal": 7508,
      "almost": 7509,
      "rapport": 7510,
      "Cle": 7511,
      "Wasser": 7512,
      "http": 7513,
      "plann": 7514,
      "Frauen": 7515,
      "movement": 7516,
      "Bat": 7517,
      "function": 7518,
      "Ash": 7519,
      "Cra": 7520,
      "lower": 7521,
      "page": 7522,
      "surface": 7523,
      "##ivement": 7524,
      "1909": 7525,
      "western": 7526,
      "autor": 7527,
      "##aled": 7528,
      "Roll": 7529,
      "attended": 7530,
      "Sup": 7531,
      "industry": 7532,
      "controll": 7533,
      "Follow": 7534,
      "Gründ": 7535,
      "donc": 7536,
      "Gro": 7537,
      "160": 7538,
      "Junior": 7539,
      "1907": 7540,
      "Schiff": 7541,
      "preced": 7542,
      "ran": 7543,
      "##cing": 7544,
      "##d6": 7545,
      "Fun": 7546,
      "##ieri": 7547,
      "mic": 7548,
      "bra": 7549,
      "Ker": 7550,
      "ouest": 7551,
      "guerra": 7552,
      "Jahrhunderts": 7553,
      "##bs": 7554,
      "staff": 7555,
      "Anne": 7556,
      "##enze": 7557,
      "##seil": 7558,
      "defeated": 7559,
      "individual": 7560,
      "brought": 7561,
      "##BS": 7562,
      "outside": 7563,
      "Pen": 7564,
      "##ental": 7565,
      "future": 7566,
      "Hart": 7567,
      "Assembly": 7568,
      "Nam": 7569,
      "administration": 7570,
      "simp": 7571,
      "Scotland": 7572,
      "##owa": 7573,
      "##span": 7574,
      "Alfred": 7575,
      "##anst": 7576,
      "Members": 7577,
      "##22": 7578,
      "Internet": 7579,
      "lived": 7580,
      "distin": 7581,
      "##ecially": 7582,
      "ayant": 7583,
      "lav": 7584,
      "##bro": 7585,
      "below": 7586,
      "Fall": 7587,
      "##bles": 7588,
      "##urer": 7589,
      "organization": 7590,
      "extra": 7591,
      "##cteur": 7592,
      "sister": 7593,
      "uns": 7594,
      "Site": 7595,
      "Minn": 7596,
      "Bod": 7597,
      "furono": 7598,
      "##oid": 7599,
      "95": 7600,
      "##mit": 7601,
      "1906": 7602,
      "##awa": 7603,
      "Office": 7604,
      "king": 7605,
      "##ein": 7606,
      "##erei": 7607,
      "Gil": 7608,
      "particul": 7609,
      "##alter": 7610,
      "oct": 7611,
      "correlate": 7612,
      "correspond": 7613,
      "Ot": 7614,
      "quant": 7615,
      "##ände": 7616,
      "pian": 7617,
      "manager": 7618,
      "Zusammen": 7619,
      "Domin": 7620,
      "76": 7621,
      "Television": 7622,
      "##umes": 7623,
      "look": 7624,
      "##izi": 7625,
      "##aven": 7626,
      "##phe": 7627,
      "Military": 7628,
      "lik": 7629,
      "runs": 7630,
      "Cr": 7631,
      "##ía": 7632,
      "##isce": 7633,
      "Staaten": 7634,
      "##ampf": 7635,
      "Mill": 7636,
      "Mun": 7637,
      "66": 7638,
      "food": 7639,
      "Chem": 7640,
      "##ez": 7641,
      "academ": 7642,
      "Dom": 7643,
      "##iments": 7644,
      "sar": 7645,
      "comment": 7646,
      "##jan": 7647,
      "gau": 7648,
      "##ichten": 7649,
      "anderem": 7650,
      "firm": 7651,
      "Sund": 7652,
      "RIN": 7653,
      "Regiment": 7654,
      "Rechts": 7655,
      "primary": 7656,
      "writing": 7657,
      "favor": 7658,
      "dyn": 7659,
      "roi": 7660,
      "##neur": 7661,
      "Conc": 7662,
      "##VIA": 7663,
      "Kim": 7664,
      "wood": 7665,
      "Ball": 7666,
      "##rane": 7667,
      "zone": 7668,
      "##ünstler": 7669,
      "approximately": 7670,
      "UN": 7671,
      "newspap": 7672,
      "##rig": 7673,
      "Priv": 7674,
      "rugby": 7675,
      "##ropolit": 7676,
      "##eite": 7677,
      "Wür": 7678,
      "sorti": 7679,
      "169": 7680,
      "Ju": 7681,
      "eau": 7682,
      "##ologia": 7683,
      "##bit": 7684,
      "##ucc": 7685,
      "##azu": 7686,
      "syst": 7687,
      "ensemble": 7688,
      "Conference": 7689,
      "BBC": 7690,
      "Jazz": 7691,
      "secret": 7692,
      "legisl": 7693,
      "especially": 7694,
      "Lind": 7695,
      "unit": 7696,
      "Erz": 7697,
      "##elled": 7698,
      "Rot": 7699,
      "##FC": 7700,
      "Kol": 7701,
      "FI": 7702,
      "screen": 7703,
      "selon": 7704,
      "Middle": 7705,
      "RINVIA": 7706,
      "Bew": 7707,
      "Steve": 7708,
      "Library": 7709,
      "neuen": 7710,
      "Eastern": 7711,
      "##17": 7712,
      "##itial": 7713,
      "Seg": 7714,
      "##mas": 7715,
      "structures": 7716,
      "self": 7717,
      "hö": 7718,
      "shot": 7719,
      "vit": 7720,
      "online": 7721,
      "Route": 7722,
      "prend": 7723,
      "nine": 7724,
      "##etzung": 7725,
      "##itors": 7726,
      "##otta": 7727,
      "##ocks": 7728,
      "BC": 7729,
      "coup": 7730,
      "Fir": 7731,
      "##back": 7732,
      "##geh": 7733,
      "Jr": 7734,
      "cant": 7735,
      "student": 7736,
      "independent": 7737,
      "issues": 7738,
      "little": 7739,
      "93": 7740,
      "##geschichte": 7741,
      "##riage": 7742,
      "changed": 7743,
      "Dopo": 7744,
      "rend": 7745,
      "##oso": 7746,
      "Video": 7747,
      "##ulations": 7748,
      "Rah": 7749,
      "veröffentlich": 7750,
      "sond": 7751,
      "closed": 7752,
      "regional": 7753,
      "san": 7754,
      "rag": 7755,
      "##tainment": 7756,
      "Wall": 7757,
      "neue": 7758,
      "vend": 7759,
      "##24": 7760,
      "##rspr": 7761,
      "magn": 7762,
      "Earth": 7763,
      "programs": 7764,
      "Éd": 7765,
      "Ont": 7766,
      "bring": 7767,
      "sometimes": 7768,
      "olymp": 7769,
      "Us": 7770,
      "Fle": 7771,
      "Bernard": 7772,
      "##obil": 7773,
      "Down": 7774,
      "##ié": 7775,
      "Einwohner": 7776,
      "nahm": 7777,
      "##inner": 7778,
      "philosoph": 7779,
      "break": 7780,
      "Var": 7781,
      "coast": 7782,
      "matches": 7783,
      "##ffic": 7784,
      "##lais": 7785,
      "Sydney": 7786,
      "##bere": 7787,
      "Henri": 7788,
      "##iera": 7789,
      "hyd": 7790,
      "##isi": 7791,
      "##anson": 7792,
      "##action": 7793,
      "errich": 7794,
      "celle": 7795,
      "##roit": 7796,
      "Od": 7797,
      "Mir": 7798,
      "chief": 7799,
      "arriv": 7800,
      "##ografie": 7801,
      "##TV": 7802,
      "Gran": 7803,
      "Township": 7804,
      "Bed": 7805,
      "##idé": 7806,
      "big": 7807,
      "##ép": 7808,
      "##teen": 7809,
      "too": 7810,
      "goals": 7811,
      "Revolution": 7812,
      "##cel": 7813,
      "news": 7814,
      "traditional": 7815,
      "##platz": 7816,
      "compagn": 7817,
      "Schauspieler": 7818,
      "Health": 7819,
      "parents": 7820,
      "mitt": 7821,
      "##eri": 7822,
      "86": 7823,
      "Sound": 7824,
      "Graf": 7825,
      "Zur": 7826,
      "running": 7827,
      "vita": 7828,
      "quelques": 7829,
      "denen": 7830,
      "##lers": 7831,
      "tar": 7832,
      "interview": 7833,
      "footballer": 7834,
      "county": 7835,
      "##onic": 7836,
      "può": 7837,
      "Toronto": 7838,
      "parties": 7839,
      "##anga": 7840,
      "##ging": 7841,
      "Fel": 7842,
      "##ieur": 7843,
      "##aki": 7844,
      "Rand": 7845,
      "Human": 7846,
      "operations": 7847,
      "##liga": 7848,
      "Arn": 7849,
      "##worth": 7850,
      "Sea": 7851,
      "Tenn": 7852,
      "highest": 7853,
      "##gr": 7854,
      "Design": 7855,
      "##quer": 7856,
      "##anth": 7857,
      "##ols": 7858,
      "Voci": 7859,
      "beginning": 7860,
      "mention": 7861,
      "taking": 7862,
      "1904": 7863,
      "##ifica": 7864,
      "Master": 7865,
      "##airman": 7866,
      "##wart": 7867,
      "Personal": 7868,
      "##isen": 7869,
      "represented": 7870,
      "itself": 7871,
      "78": 7872,
      "##pa": 7873,
      "##gers": 7874,
      "##éroï": 7875,
      "Information": 7876,
      "Creek": 7877,
      "Poland": 7878,
      "##seau": 7879,
      "Foundation": 7880,
      "schw": 7881,
      "##anna": 7882,
      "##MS": 7883,
      "drama": 7884,
      "cli": 7885,
      "05": 7886,
      "##innen": 7887,
      "prior": 7888,
      "mark": 7889,
      "utilizz": 7890,
      "##ensis": 7891,
      "according": 7892,
      "immedi": 7893,
      "studies": 7894,
      "Monte": 7895,
      "cust": 7896,
      "names": 7897,
      "Rest": 7898,
      "ended": 7899,
      "père": 7900,
      "Harris": 7901,
      "Britain": 7902,
      "allowed": 7903,
      "##ationen": 7904,
      "costru": 7905,
      "##aglia": 7906,
      "##iler": 7907,
      "battle": 7908,
      "Bev": 7909,
      "boy": 7910,
      "impro": 7911,
      "Charl": 7912,
      "Crit": 7913,
      "mes": 7914,
      "miniatur": 7915,
      "##ancy": 7916,
      "spielte": 7917,
      "Jugend": 7918,
      "Following": 7919,
      "soon": 7920,
      "168": 7921,
      "institut": 7922,
      "enth": 7923,
      "Gruppe": 7924,
      "seat": 7925,
      "Brad": 7926,
      "Common": 7927,
      "##geg": 7928,
      "Nar": 7929,
      "broadcast": 7930,
      "##athan": 7931,
      "##gart": 7932,
      "Governor": 7933,
      "conditions": 7934,
      "##uther": 7935,
      "Ty": 7936,
      "Light": 7937,
      "##ections": 7938,
      "##ellig": 7939,
      "arts": 7940,
      "##ems": 7941,
      "##ulf": 7942,
      "discuss": 7943,
      "veh": 7944,
      "Eliz": 7945,
      "Fal": 7946,
      "launched": 7947,
      "##imb": 7948,
      "##änge": 7949,
      "dabei": 7950,
      "army": 7951,
      "Viet": 7952,
      "ot": 7953,
      "##umn": 7954,
      "musique": 7955,
      "prepar": 7956,
      "care": 7957,
      "Democratic": 7958,
      "##recht": 7959,
      "Stock": 7960,
      "Ist": 7961,
      "whom": 7962,
      "rôle": 7963,
      "concent": 7964,
      "Bass": 7965,
      "##ometer": 7966,
      "Imper": 7967,
      "Track": 7968,
      "immer": 7969,
      "Neu": 7970,
      "##olis": 7971,
      "##eria": 7972,
      "rencont": 7973,
      "##annten": 7974,
      "label": 7975,
      "inner": 7976,
      "Erst": 7977,
      "Many": 7978,
      "##entes": 7979,
      "Coast": 7980,
      "seconda": 7981,
      "##kant": 7982,
      "04": 7983,
      "summer": 7984,
      "purp": 7985,
      "Development": 7986,
      "##alo": 7987,
      "AS": 7988,
      "required": 7989,
      "erschien": 7990,
      "electric": 7991,
      "Pad": 7992,
      "##té": 7993,
      "Dep": 7994,
      "così": 7995,
      "Harry": 7996,
      "fif": 7997,
      "réc": 7998,
      "Lady": 7999,
      "##ags": 8000,
      "##ii": 8001,
      "##jekt": 8002,
      "union": 8003,
      "84": 8004,
      "sin": 8005,
      "77": 8006,
      "nature": 8007,
      "Kinder": 8008,
      "joue": 8009,
      "partecip": 8010,
      "higher": 8011,
      "woman": 8012,
      "##oup": 8013,
      "Leipzig": 8014,
      "influence": 8015,
      "nation": 8016,
      "los": 8017,
      "dernier": 8018,
      "towards": 8019,
      "management": 8020,
      "dav": 8021,
      "quella": 8022,
      "fore": 8023,
      "##ufen": 8024,
      "editor": 8025,
      "rid": 8026,
      "Ka": 8027,
      "##DF": 8028,
      "association": 8029,
      "##bell": 8030,
      "aband": 8031,
      "mess": 8032,
      "Alber": 8033,
      "Otto": 8034,
      "##oca": 8035,
      "##retto": 8036,
      "zahl": 8037,
      "Baron": 8038,
      "cycl": 8039,
      "1903": 8040,
      "Nr": 8041,
      "164": 8042,
      "74": 8043,
      "##ähn": 8044,
      "wide": 8045,
      "##onf": 8046,
      "03": 8047,
      "##auv": 8048,
      "##EC": 8049,
      "trop": 8050,
      "##adelph": 8051,
      "got": 8052,
      "money": 8053,
      "##21": 8054,
      "means": 8055,
      "accord": 8056,
      "deta": 8057,
      "deuxième": 8058,
      "Dip": 8059,
      "Latin": 8060,
      "##aught": 8061,
      "Jacob": 8062,
      "##fern": 8063,
      "tutti": 8064,
      "Hof": 8065,
      "##azzo": 8066,
      "lanc": 8067,
      "##here": 8068,
      "Neben": 8069,
      "dém": 8070,
      "##auté": 8071,
      "Program": 8072,
      "generally": 8073,
      "temper": 8074,
      "Mand": 8075,
      "situé": 8076,
      "gef": 8077,
      "68": 8078,
      "Pil": 8079,
      "Dun": 8080,
      "Venez": 8081,
      "##eta": 8082,
      "Weltkrieg": 8083,
      "Polish": 8084,
      "cam": 8085,
      "Gallery": 8086,
      "##üb": 8087,
      "Color": 8088,
      "1901": 8089,
      "stra": 8090,
      "##sky": 8091,
      "Besch": 8092,
      "frances": 8093,
      "remov": 8094,
      "absol": 8095,
      "Ira": 8096,
      "Unternehmen": 8097,
      "excl": 8098,
      "##ätz": 8099,
      "époque": 8100,
      "##last": 8101,
      "Administ": 8102,
      "location": 8103,
      "##acher": 8104,
      "englisch": 8105,
      "gem": 8106,
      "##ucky": 8107,
      "express": 8108,
      "dic": 8109,
      "##oring": 8110,
      "Business": 8111,
      "##atriate": 8112,
      "73": 8113,
      "maxim": 8114,
      "Grande": 8115,
      "Zh": 8116,
      "Stutt": 8117,
      "Family": 8118,
      "cann": 8119,
      "limit": 8120,
      "Allem": 8121,
      "Wilson": 8122,
      "Marine": 8123,
      "Ontario": 8124,
      "Lam": 8125,
      "Publ": 8126,
      "##èg": 8127,
      "otto": 8128,
      "Three": 8129,
      "Folge": 8130,
      "Frankfurt": 8131,
      "##ktor": 8132,
      "Ged": 8133,
      "##usband": 8134,
      "Milano": 8135,
      "Elizabeth": 8136,
      "Bac": 8137,
      "contains": 8138,
      "Moh": 8139,
      "Nat": 8140,
      "tant": 8141,
      "determin": 8142,
      "Philadelph": 8143,
      "Köl": 8144,
      "Während": 8145,
      "##gabe": 8146,
      "giorn": 8147,
      "Champion": 8148,
      "Gel": 8149,
      "##erdem": 8150,
      "spent": 8151,
      "Description": 8152,
      "dat": 8153,
      "bezeichnet": 8154,
      "risp": 8155,
      "famiglia": 8156,
      "09": 8157,
      "1902": 8158,
      "79": 8159,
      "property": 8160,
      "##inture": 8161,
      "##kin": 8162,
      "Prot": 8163,
      "environment": 8164,
      "Philosoph": 8165,
      "rul": 8166,
      "##erte": 8167,
      "mand": 8168,
      "José": 8169,
      "neu": 8170,
      "##ondere": 8171,
      "genus": 8172,
      "##istem": 8173,
      "chez": 8174,
      "Books": 8175,
      "##anter": 8176,
      "Power": 8177,
      "##ulaire": 8178,
      "##illi": 8179,
      "##ouri": 8180,
      "##imi": 8181,
      "##egu": 8182,
      "##ève": 8183,
      "Forsch": 8184,
      "baseball": 8185,
      "06": 8186,
      "geme": 8187,
      "cut": 8188,
      "##raum": 8189,
      "additional": 8190,
      "166": 8191,
      "lu": 8192,
      "Adam": 8193,
      "Taylor": 8194,
      "##izio": 8195,
      "##crit": 8196,
      "love": 8197,
      "##ohen": 8198,
      "69": 8199,
      "Pfar": 8200,
      "mise": 8201,
      "Fab": 8202,
      "165": 8203,
      "Kaiser": 8204,
      "##RA": 8205,
      "af": 8206,
      "##schluss": 8207,
      "##into": 8208,
      "More": 8209,
      "Autor": 8210,
      "Sus": 8211,
      "perd": 8212,
      "jewe": 8213,
      "Gö": 8214,
      "##unit": 8215,
      "Represent": 8216,
      "Mi": 8217,
      "gouvernement": 8218,
      "##etic": 8219,
      "Further": 8220,
      "rail": 8221,
      "Kle": 8222,
      "Luft": 8223,
      "senior": 8224,
      "##seud": 8225,
      "Ott": 8226,
      "Pas": 8227,
      "trouve": 8228,
      "Songs": 8229,
      "08": 8230,
      "##aces": 8231,
      "sculpt": 8232,
      "##TA": 8233,
      "caract": 8234,
      "percent": 8235,
      "Media": 8236,
      "alcuni": 8237,
      "associated": 8238,
      "opening": 8239,
      "Colomb": 8240,
      "arrang": 8241,
      "##itto": 8242,
      "seule": 8243,
      "rue": 8244,
      "##zu": 8245,
      "gehörte": 8246,
      "##isé": 8247,
      "96": 8248,
      "Deutsche": 8249,
      "Sources": 8250,
      "##ready": 8251,
      "Ford": 8252,
      "rou": 8253,
      "Lem": 8254,
      "Bord": 8255,
      "creat": 8256,
      "##aring": 8257,
      "##urm": 8258,
      "##miss": 8259,
      "noted": 8260,
      "##orporated": 8261,
      "annual": 8262,
      "Work": 8263,
      "zug": 8264,
      "jun": 8265,
      "Magn": 8266,
      "las": 8267,
      "Bevölker": 8268,
      "toute": 8269,
      "Wohn": 8270,
      "##sta": 8271,
      "DVD": 8272,
      "rapid": 8273,
      "##lit": 8274,
      "près": 8275,
      "batter": 8276,
      "Anc": 8277,
      "mars": 8278,
      "department": 8279,
      "##SS": 8280,
      "67": 8281,
      "Queens": 8282,
      "##obre": 8283,
      "CE": 8284,
      "##gu": 8285,
      "thus": 8286,
      "erstmals": 8287,
      "Bert": 8288,
      "hau": 8289,
      "##kins": 8290,
      "appearance": 8291,
      "Bibliografia": 8292,
      "jeu": 8293,
      "hochkant": 8294,
      "##standing": 8295,
      "98": 8296,
      "##28": 8297,
      "unc": 8298,
      "87": 8299,
      "##berger": 8300,
      "Archit": 8301,
      "subject": 8302,
      "legal": 8303,
      "##ifique": 8304,
      "##read": 8305,
      "Straß": 8306,
      "sotto": 8307,
      "architecture": 8308,
      "destroy": 8309,
      "practice": 8310,
      "sor": 8311,
      "figure": 8312,
      "Straße": 8313,
      "Heil": 8314,
      "posto": 8315,
      "Las": 8316,
      "ships": 8317,
      "##ettre": 8318,
      "uses": 8319,
      "##27": 8320,
      "Dra": 8321,
      "##hist": 8322,
      "Drag": 8323,
      "Pot": 8324,
      "Schloss": 8325,
      "##geordn": 8326,
      "cases": 8327,
      "##jahr": 8328,
      "##rying": 8329,
      "Guard": 8330,
      "##èle": 8331,
      "fonction": 8332,
      "##lichkeit": 8333,
      "Ts": 8334,
      "Soci": 8335,
      "Squad": 8336,
      "difficult": 8337,
      "Bez": 8338,
      "##ître": 8339,
      "trade": 8340,
      "moy": 8341,
      "Bot": 8342,
      "complete": 8343,
      "Frankreich": 8344,
      "quello": 8345,
      "##ichen": 8346,
      "Nations": 8347,
      "83": 8348,
      "côt": 8349,
      "income": 8350,
      "Tony": 8351,
      "##26": 8352,
      "earlier": 8353,
      "Minnes": 8354,
      "##publique": 8355,
      "distance": 8356,
      "aust": 8357,
      "caratter": 8358,
      "sea": 8359,
      "activities": 8360,
      "##vement": 8361,
      "Eric": 8362,
      "Municipal": 8363,
      "##uri": 8364,
      "163": 8365,
      "##ilità": 8366,
      "ancora": 8367,
      "minister": 8368,
      "ensuite": 8369,
      "##kan": 8370,
      "spect": 8371,
      "surround": 8372,
      "imper": 8373,
      "##iten": 8374,
      "personnel": 8375,
      "##imp": 8376,
      "Nick": 8377,
      "Patrick": 8378,
      "architect": 8379,
      "quindi": 8380,
      "##oti": 8381,
      "row": 8382,
      "##idel": 8383,
      "bed": 8384,
      "adj": 8385,
      "officer": 8386,
      "Writ": 8387,
      "Johannes": 8388,
      "Cha": 8389,
      "##riera": 8390,
      "07": 8391,
      "##èse": 8392,
      "université": 8393,
      "##ript": 8394,
      "quarter": 8395,
      "Davis": 8396,
      "clear": 8397,
      "hot": 8398,
      "##omat": 8399,
      "##eks": 8400,
      "entered": 8401,
      "oppos": 8402,
      "Familien": 8403,
      "better": 8404,
      "##osen": 8405,
      "##anne": 8406,
      "charge": 8407,
      "##rod": 8408,
      "Fair": 8409,
      "##antry": 8410,
      "##ously": 8411,
      "entire": 8412,
      "##lossen": 8413,
      "Eur": 8414,
      "##éli": 8415,
      "Egypt": 8416,
      "ging": 8417,
      "Bis": 8418,
      "Eug": 8419,
      "entwick": 8420,
      "VI": 8421,
      "Verm": 8422,
      "morte": 8423,
      "##enth": 8424,
      "##ín": 8425,
      "decision": 8426,
      "operated": 8427,
      "##rast": 8428,
      "##wissenschaft": 8429,
      "österreich": 8430,
      "schon": 8431,
      "catt": 8432,
      "##äm": 8433,
      "##organ": 8434,
      "trov": 8435,
      "##èrent": 8436,
      "offici": 8437,
      "##MA": 8438,
      "120": 8439,
      "AC": 8440,
      "Gm": 8441,
      "Minnesota": 8442,
      "Sat": 8443,
      "##schutz": 8444,
      "Coupe": 8445,
      "Front": 8446,
      "husband": 8447,
      "Motor": 8448,
      "bronze": 8449,
      "rot": 8450,
      "negli": 8451,
      "sout": 8452,
      "genre": 8453,
      "##fahren": 8454,
      "tracks": 8455,
      "perman": 8456,
      "##lieb": 8457,
      "##äche": 8458,
      "elections": 8459,
      "##liance": 8460,
      "feature": 8461,
      "##folge": 8462,
      "Anfang": 8463,
      "officiel": 8464,
      "##irement": 8465,
      "continue": 8466,
      "##roph": 8467,
      "Rhein": 8468,
      "older": 8469,
      "Modern": 8470,
      "##itage": 8471,
      "##elly": 8472,
      "##oltre": 8473,
      "economic": 8474,
      "Raj": 8475,
      "Sciences": 8476,
      "nive": 8477,
      "hol": 8478,
      "status": 8479,
      "##enh": 8480,
      "Ale": 8481,
      "1890": 8482,
      "##ledge": 8483,
      "element": 8484,
      "##iform": 8485,
      "retired": 8486,
      "##chten": 8487,
      "##iled": 8488,
      "Hospital": 8489,
      "Storia": 8490,
      "fix": 8491,
      "Sein": 8492,
      "##right": 8493,
      "histori": 8494,
      "Weltmeister": 8495,
      "André": 8496,
      "Guerre": 8497,
      "wing": 8498,
      "Justice": 8499,
      "##ependant": 8500,
      "Andre": 8501,
      "programm": 8502,
      "Liga": 8503,
      "##gency": 8504,
      "move": 8505,
      "Jeux": 8506,
      "##afts": 8507,
      "étaient": 8508,
      "##antin": 8509,
      "Vic": 8510,
      "##aco": 8511,
      "eastern": 8512,
      "##fel": 8513,
      "cer": 8514,
      "sue": 8515,
      "##länd": 8516,
      "##alysis": 8517,
      "##stoff": 8518,
      "##fass": 8519,
      "Vietnam": 8520,
      "##oven": 8521,
      "##genommen": 8522,
      "Gli": 8523,
      "viv": 8524,
      "##lar": 8525,
      "94": 8526,
      "Gem": 8527,
      "municipality": 8528,
      "##baut": 8529,
      "1898": 8530,
      "##29": 8531,
      "rund": 8532,
      "Sign": 8533,
      "vote": 8534,
      "##HL": 8535,
      "Juan": 8536,
      "##esis": 8537,
      "3rd": 8538,
      "sources": 8539,
      "dram": 8540,
      "gehört": 8541,
      "##uve": 8542,
      "Cub": 8543,
      "##èt": 8544,
      "sempre": 8545,
      "Ron": 8546,
      "Naz": 8547,
      "Turk": 8548,
      "porte": 8549,
      "##net": 8550,
      "##egt": 8551,
      "theory": 8552,
      "terms": 8553,
      "nun": 8554,
      "sog": 8555,
      "##down": 8556,
      "initial": 8557,
      "incident": 8558,
      "Ban": 8559,
      "concept": 8560,
      "##riften": 8561,
      "selected": 8562,
      "##ricts": 8563,
      "Stuttgart": 8564,
      "##teilung": 8565,
      "##akers": 8566,
      "numerous": 8567,
      "##éré": 8568,
      "rout": 8569,
      "Roger": 8570,
      "corn": 8571,
      "Bischof": 8572,
      "Ils": 8573,
      "stell": 8574,
      "quali": 8575,
      "Fire": 8576,
      "##zieh": 8577,
      "brand": 8578,
      "##üh": 8579,
      "nob": 8580,
      "ordre": 8581,
      "Kra": 8582,
      "dalle": 8583,
      "Gast": 8584,
      "Islands": 8585,
      "##äger": 8586,
      "##ommes": 8587,
      "jur": 8588,
      "speed": 8589,
      "actors": 8590,
      "neben": 8591,
      "occasion": 8592,
      "andere": 8593,
      "already": 8594,
      "concert": 8595,
      "changes": 8596,
      "lines": 8597,
      "religious": 8598,
      "akt": 8599,
      "conqu": 8600,
      "##inale": 8601,
      "medical": 8602,
      "##enten": 8603,
      "étant": 8604,
      "dov": 8605,
      "##resent": 8606,
      "Fox": 8607,
      "##ecn": 8608,
      "Biography": 8609,
      "accident": 8610,
      "Prime": 8611,
      "##osh": 8612,
      "Dol": 8613,
      "Corporation": 8614,
      "décl": 8615,
      "##umin": 8616,
      "scen": 8617,
      "originale": 8618,
      "frat": 8619,
      "Freder": 8620,
      "rich": 8621,
      "##DA": 8622,
      "Police": 8623,
      "expand": 8624,
      "termine": 8625,
      "Hom": 8626,
      "rob": 8627,
      "159": 8628,
      "Méd": 8629,
      "Colon": 8630,
      "europé": 8631,
      "Clar": 8632,
      "studied": 8633,
      "1899": 8634,
      "increased": 8635,
      "##stra": 8636,
      "rate": 8637,
      "reç": 8638,
      "##inte": 8639,
      "Kreuz": 8640,
      "cru": 8641,
      "sondern": 8642,
      "sav": 8643,
      "Carlo": 8644,
      "##attro": 8645,
      "combat": 8646,
      "Mosc": 8647,
      "font": 8648,
      "Hier": 8649,
      "featuring": 8650,
      "jan": 8651,
      "verm": 8652,
      "Pakistan": 8653,
      "Kont": 8654,
      "Pit": 8655,
      "##ugno": 8656,
      "Secretary": 8657,
      "Mik": 8658,
      "Stephen": 8659,
      "Vis": 8660,
      "mut": 8661,
      "économ": 8662,
      "##ologe": 8663,
      "nuc": 8664,
      "schließ": 8665,
      "##istiques": 8666,
      "Brian": 8667,
      "Log": 8668,
      "Sü": 8669,
      "seines": 8670,
      "Lewis": 8671,
      "##nisse": 8672,
      "##opf": 8673,
      "##èces": 8674,
      "##gesamt": 8675,
      "##gleich": 8676,
      "##für": 8677,
      "##lande": 8678,
      "caused": 8679,
      "Plat": 8680,
      "Bart": 8681,
      "thought": 8682,
      "##law": 8683,
      "victory": 8684,
      "Präsident": 8685,
      "wechs": 8686,
      "Rena": 8687,
      "nombreux": 8688,
      "create": 8689,
      "Ernst": 8690,
      "Jahres": 8691,
      "##ears": 8692,
      "Fore": 8693,
      "darauf": 8694,
      "Provinz": 8695,
      "##ications": 8696,
      "juin": 8697,
      "Independ": 8698,
      "##aume": 8699,
      "heut": 8700,
      "entra": 8701,
      "limited": 8702,
      "Beach": 8703,
      "Aqu": 8704,
      "nor": 8705,
      "migli": 8706,
      "##ech": 8707,
      "becoming": 8708,
      "Gabri": 8709,
      "Weg": 8710,
      "Works": 8711,
      "dre": 8712,
      "Philadelphia": 8713,
      "recher": 8714,
      "ban": 8715,
      "##udem": 8716,
      "Lors": 8717,
      "Hou": 8718,
      "Kom": 8719,
      "##gor": 8720,
      "tu": 8721,
      "mois": 8722,
      "##dienst": 8723,
      "##cheid": 8724,
      "NS": 8725,
      "wenn": 8726,
      "##bourne": 8727,
      "scène": 8728,
      "##iscons": 8729,
      "kil": 8730,
      "##aust": 8731,
      "Their": 8732,
      "bild": 8733,
      "##icks": 8734,
      "bound": 8735,
      "famous": 8736,
      "majority": 8737,
      "##anie": 8738,
      "altre": 8739,
      "energy": 8740,
      "##gie": 8741,
      "einige": 8742,
      "promin": 8743,
      "contra": 8744,
      "##cean": 8745,
      "##ragen": 8746,
      "Kor": 8747,
      "Organisation": 8748,
      "AT": 8749,
      "allemand": 8750,
      "Gesellschaft": 8751,
      "##bet": 8752,
      "allen": 8753,
      "##ilia": 8754,
      "Rail": 8755,
      "PS": 8756,
      "Shar": 8757,
      "##nahm": 8758,
      "Spring": 8759,
      "##die": 8760,
      "Mars": 8761,
      "Dort": 8762,
      "Ten": 8763,
      "om": 8764,
      "Claude": 8765,
      "##rence": 8766,
      "mechan": 8767,
      "##aye": 8768,
      "strateg": 8769,
      "##emat": 8770,
      "Thé": 8771,
      "##uale": 8772,
      "Abd": 8773,
      "Wol": 8774,
      "Beispiel": 8775,
      "semi": 8776,
      "Meth": 8777,
      "Archite": 8778,
      "##ierungs": 8779,
      "##ronom": 8780,
      "going": 8781,
      "question": 8782,
      "communities": 8783,
      "Schweizer": 8784,
      "##ser": 8785,
      "Bh": 8786,
      "photograph": 8787,
      "1895": 8788,
      "##ortun": 8789,
      "##marès": 8790,
      "##œur": 8791,
      "kathol": 8792,
      "1980s": 8793,
      "Wiscons": 8794,
      "##adi": 8795,
      "##gs": 8796,
      "mostly": 8797,
      "lug": 8798,
      "Lt": 8799,
      "dra": 8800,
      "##uzione": 8801,
      "technique": 8802,
      "job": 8803,
      "unique": 8804,
      "metal": 8805,
      "##ämp": 8806,
      "zweiten": 8807,
      "serving": 8808,
      "larg": 8809,
      "giov": 8810,
      "SC": 8811,
      "##tembre": 8812,
      "articles": 8813,
      "prix": 8814,
      "murder": 8815,
      "führte": 8816,
      "account": 8817,
      "Korea": 8818,
      "##mittel": 8819,
      "Million": 8820,
      "confirm": 8821,
      "Swedish": 8822,
      "dét": 8823,
      "CO": 8824,
      "##lim": 8825,
      "Indiana": 8826,
      "##isione": 8827,
      "federal": 8828,
      "Duke": 8829,
      "Wisconsin": 8830,
      "plans": 8831,
      "Balt": 8832,
      "subs": 8833,
      "Aud": 8834,
      "Cru": 8835,
      "technology": 8836,
      "mondo": 8837,
      "Abb": 8838,
      "##ilupp": 8839,
      "litt": 8840,
      "Sher": 8841,
      "parall": 8842,
      "Technology": 8843,
      "##esser": 8844,
      "##rsprün": 8845,
      "genannt": 8846,
      "espèce": 8847,
      "cad": 8848,
      "particularly": 8849,
      "permet": 8850,
      "##umber": 8851,
      "voy": 8852,
      "block": 8853,
      "Missouri": 8854,
      "lit": 8855,
      "Gé": 8856,
      "1896": 8857,
      "Airport": 8858,
      "give": 8859,
      "##équ": 8860,
      "today": 8861,
      "##rano": 8862,
      "sost": 8863,
      "approach": 8864,
      "##ienn": 8865,
      "Tax": 8866,
      "Christop": 8867,
      "km²": 8868,
      "records": 8869,
      "97": 8870,
      "ax": 8871,
      "##toire": 8872,
      "Ut": 8873,
      "##edes": 8874,
      "recording": 8875,
      "voll": 8876,
      "computer": 8877,
      "##cop": 8878,
      "sera": 8879,
      "##reiche": 8880,
      "##enty": 8881,
      "regist": 8882,
      "Free": 8883,
      "shown": 8884,
      "##bildung": 8885,
      "##éma": 8886,
      "##anze": 8887,
      "Betrieb": 8888,
      "hours": 8889,
      "cricket": 8890,
      "code": 8891,
      "Week": 8892,
      "middle": 8893,
      "##fried": 8894,
      "Gord": 8895,
      "takes": 8896,
      "chart": 8897,
      "let": 8898,
      "perc": 8899,
      "senza": 8900,
      "167": 8901,
      "##ansion": 8902,
      "##iore": 8903,
      "##klär": 8904,
      "Baseball": 8905,
      "verw": 8906,
      "chi": 8907,
      "##ureau": 8908,
      "septem": 8909,
      "##istance": 8910,
      "Quar": 8911,
      "mac": 8912,
      "Ans": 8913,
      "Om": 8914,
      "lack": 8915,
      "Command": 8916,
      "wegen": 8917,
      "movie": 8918,
      "##atus": 8919,
      "##aks": 8920,
      "##itori": 8921,
      "Allen": 8922,
      "gemeins": 8923,
      "bul": 8924,
      "Holly": 8925,
      "museum": 8926,
      "Sac": 8927,
      "Kriegs": 8928,
      "##pson": 8929,
      "##olley": 8930,
      "##ihe": 8931,
      "equip": 8932,
      "##glas": 8933,
      "initially": 8934,
      "settembre": 8935,
      "armée": 8936,
      "forced": 8937,
      "master": 8938,
      "##rache": 8939,
      "Place": 8940,
      "suc": 8941,
      "comedy": 8942,
      "raggi": 8943,
      "propr": 8944,
      "Portugal": 8945,
      "Toch": 8946,
      "volume": 8947,
      "Fund": 8948,
      "ice": 8949,
      "Mach": 8950,
      "rang": 8951,
      "remains": 8952,
      "realizz": 8953,
      "Gust": 8954,
      "image": 8955,
      "parc": 8956,
      "nuovo": 8957,
      "septembre": 8958,
      "Culture": 8959,
      "##äuf": 8960,
      "sistem": 8961,
      "Amb": 8962,
      "1897": 8963,
      "##ività": 8964,
      "maggio": 8965,
      "##gemein": 8966,
      "Hit": 8967,
      "Fach": 8968,
      "heavy": 8969,
      "har": 8970,
      "##étique": 8971,
      "passed": 8972,
      "Pont": 8973,
      "university": 8974,
      "verk": 8975,
      "##eo": 8976,
      "supported": 8977,
      "##häng": 8978,
      "Born": 8979,
      "storia": 8980,
      "Stef": 8981,
      "room": 8982,
      "sites": 8983,
      "##aph": 8984,
      "##itel": 8985,
      "meeting": 8986,
      "appears": 8987,
      "Prize": 8988,
      "##ety": 8989,
      "border": 8990,
      "##oration": 8991,
      "rappresent": 8992,
      "##fach": 8993,
      "Bridge": 8994,
      "policy": 8995,
      "Gebiet": 8996,
      "Schwar": 8997,
      "corps": 8998,
      "janvier": 8999,
      "Hab": 9000,
      "erhalten": 9001,
      "##lust": 9002,
      "nommé": 9003,
      "ihrem": 9004,
      "historical": 9005,
      "Bulgar": 9006,
      "Kansas": 9007,
      "administrative": 9008,
      "competed": 9009,
      "multiple": 9010,
      "Guy": 9011,
      "##rance": 9012,
      "Ec": 9013,
      "squadra": 9014,
      "Country": 9015,
      "except": 9016,
      "fant": 9017,
      "Bonn": 9018,
      "Mais": 9019,
      "##emente": 9020,
      "Ped": 9021,
      "contact": 9022,
      "##usch": 9023,
      "Seite": 9024,
      "conten": 9025,
      "evidence": 9026,
      "keep": 9027,
      "große": 9028,
      "Offic": 9029,
      "Let": 9030,
      "juillet": 9031,
      "Castle": 9032,
      "##kar": 9033,
      "otten": 9034,
      "durant": 9035,
      "dens": 9036,
      "##ètres": 9037,
      "Fac": 9038,
      "Six": 9039,
      "##otti": 9040,
      "arc": 9041,
      "Regie": 9042,
      "hy": 9043,
      "250": 9044,
      "types": 9045,
      "meaning": 9046,
      "##onist": 9047,
      "presso": 9048,
      "##book": 9049,
      "Rose": 9050,
      "symbol": 9051,
      "##ruch": 9052,
      "Francesco": 9053,
      "Federal": 9054,
      "numero": 9055,
      "Territ": 9056,
      "manif": 9057,
      "##ßen": 9058,
      "gun": 9059,
      "##lines": 9060,
      "##mund": 9061,
      "##zial": 9062,
      "Ku": 9063,
      "Captain": 9064,
      "##ionali": 9065,
      "Now": 9066,
      "titolo": 9067,
      "Hur": 9068,
      "idea": 9069,
      "telev": 9070,
      "vitt": 9071,
      "presented": 9072,
      "mehrere": 9073,
      "Beginn": 9074,
      "##astic": 9075,
      "##allo": 9076,
      "foreign": 9077,
      "Georges": 9078,
      "souvent": 9079,
      "quick": 9080,
      "giugno": 9081,
      "##zech": 9082,
      "besteht": 9083,
      "##ding": 9084,
      "##iane": 9085,
      "prevent": 9086,
      "Princ": 9087,
      "impr": 9088,
      "##etzte": 9089,
      "##ennaio": 9090,
      "großen": 9091,
      "Palmarès": 9092,
      "ott": 9093,
      "oltre": 9094,
      "##str": 9095,
      "Project": 9096,
      "longer": 9097,
      "ausge": 9098,
      "##izing": 9099,
      "##iko": 9100,
      "referred": 9101,
      "Nob": 9102,
      "esemp": 9103,
      "hospital": 9104,
      "Seb": 9105,
      "FM": 9106,
      "Italien": 9107,
      "##ms": 9108,
      "##zeichnung": 9109,
      "professor": 9110,
      "Korean": 9111,
      "Another": 9112,
      "Earl": 9113,
      "##jours": 9114,
      "Ark": 9115,
      "##tti": 9116,
      "politicians": 9117,
      "dieses": 9118,
      "periodo": 9119,
      "##oe": 9120,
      "##seite": 9121,
      "##venir": 9122,
      "ble": 9123,
      "torn": 9124,
      "Zü": 9125,
      "##nete": 9126,
      "##lyn": 9127,
      "gé": 9128,
      "compte": 9129,
      "distribution": 9130,
      "estate": 9131,
      "Philippe": 9132,
      "Box": 9133,
      "Brook": 9134,
      "verso": 9135,
      "wicht": 9136,
      "##oln": 9137,
      "1870": 9138,
      "##LA": 9139,
      "République": 9140,
      "Studies": 9141,
      "Québ": 9142,
      "erne": 9143,
      "invent": 9144,
      "Nag": 9145,
      "inaug": 9146,
      "société": 9147,
      "##vere": 9148,
      "Finn": 9149,
      "simple": 9150,
      "Vater": 9151,
      "Tab": 9152,
      "##indung": 9153,
      "##raph": 9154,
      "Verkehr": 9155,
      "##uries": 9156,
      "1990s": 9157,
      "dise": 9158,
      "##herr": 9159,
      "##igkeiten": 9160,
      "1970s": 9161,
      "trava": 9162,
      "dit": 9163,
      "travers": 9164,
      "Both": 9165,
      "Rio": 9166,
      "Phot": 9167,
      "octobre": 9168,
      "Meg": 9169,
      "Avenue": 9170,
      "##affen": 9171,
      "Dyn": 9172,
      "##ened": 9173,
      "Regional": 9174,
      "pens": 9175,
      "800": 9176,
      "diffus": 9177,
      "Gir": 9178,
      "Cass": 9179,
      "festival": 9180,
      "vide": 9181,
      "gennaio": 9182,
      "stark": 9183,
      "situation": 9184,
      "stay": 9185,
      "##ruktur": 9186,
      "raised": 9187,
      "ecc": 9188,
      "##èmes": 9189,
      "##OC": 9190,
      "155": 9191,
      "Werke": 9192,
      "premiers": 9193,
      "svilupp": 9194,
      "##oût": 9195,
      "vice": 9196,
      "##lehrer": 9197,
      "afin": 9198,
      "hatten": 9199,
      "claimed": 9200,
      "separate": 9201,
      "Feld": 9202,
      "arbeitete": 9203,
      "anglais": 9204,
      "Tochter": 9205,
      "uff": 9206,
      "gas": 9207,
      "##ologist": 9208,
      "Cel": 9209,
      "collect": 9210,
      "##imenti": 9211,
      "##ritten": 9212,
      "##izia": 9213,
      "Gegen": 9214,
      "##yes": 9215,
      "convert": 9216,
      "##ouvert": 9217,
      "serve": 9218,
      "avril": 9219,
      "operation": 9220,
      "1893": 9221,
      "##ammlung": 9222,
      "##lu": 9223,
      "marzo": 9224,
      "##enberg": 9225,
      "Pict": 9226,
      "platform": 9227,
      "elev": 9228,
      "##ifer": 9229,
      "doit": 9230,
      "##uts": 9231,
      "##istiche": 9232,
      "our": 9233,
      "##otes": 9234,
      "casa": 9235,
      "Philip": 9236,
      "forms": 9237,
      "##utlich": 9238,
      "Pays": 9239,
      "##real": 9240,
      "larger": 9241,
      "sla": 9242,
      "parish": 9243,
      "officers": 9244,
      "Production": 9245,
      "Mountain": 9246,
      "Rub": 9247,
      "##äft": 9248,
      "increase": 9249,
      "demand": 9250,
      "overall": 9251,
      "##kes": 9252,
      "Eg": 9253,
      "Män": 9254,
      "descent": 9255,
      "recent": 9256,
      "Management": 9257,
      "##peror": 9258,
      "PC": 9259,
      "composed": 9260,
      "##ibility": 9261,
      "weeks": 9262,
      "1880": 9263,
      "##utto": 9264,
      "##rant": 9265,
      "Mort": 9266,
      "membre": 9267,
      "Psych": 9268,
      "mind": 9269,
      "1889": 9270,
      "##selves": 9271,
      "Trib": 9272,
      "Norweg": 9273,
      "Denk": 9274,
      "##aming": 9275,
      "organizations": 9276,
      "Colorado": 9277,
      "Stati": 9278,
      "projet": 9279,
      "##iang": 9280,
      "##cé": 9281,
      "cinq": 9282,
      "Austria": 9283,
      "##ilation": 9284,
      "financial": 9285,
      "ottobre": 9286,
      "Gas": 9287,
      "Karriere": 9288,
      "always": 9289,
      "Niger": 9290,
      "causa": 9291,
      "houses": 9292,
      "Basketball": 9293,
      "Digital": 9294,
      "##wide": 9295,
      "Review": 9296,
      "##wert": 9297,
      "Wars": 9298,
      "Zweiten": 9299,
      "##racht": 9300,
      "##IC": 9301,
      "Tai": 9302,
      "remain": 9303,
      "Round": 9304,
      "divent": 9305,
      "##ikt": 9306,
      "ogni": 9307,
      "##éon": 9308,
      "sequ": 9309,
      "sn": 9310,
      "##unge": 9311,
      "##olars": 9312,
      "Neg": 9313,
      "graph": 9314,
      "instrument": 9315,
      "Czech": 9316,
      "retrou": 9317,
      "subsequently": 9318,
      "tät": 9319,
      "Short": 9320,
      "Ky": 9321,
      "tradu": 9322,
      "##reng": 9323,
      "format": 9324,
      "##çon": 9325,
      "Ortste": 9326,
      "##laus": 9327,
      "Bishop": 9328,
      "##eto": 9329,
      "failed": 9330,
      "themselves": 9331,
      "gal": 9332,
      "##uchte": 9333,
      "parti": 9334,
      "née": 9335,
      "femme": 9336,
      "cities": 9337,
      "##auft": 9338,
      "square": 9339,
      "##rato": 9340,
      "Hochschul": 9341,
      "##ality": 9342,
      "Forest": 9343,
      "habitants": 9344,
      "##führung": 9345,
      "Mitte": 9346,
      "awards": 9347,
      "programme": 9348,
      "600": 9349,
      "luglio": 9350,
      "Gebäude": 9351,
      "Einsatz": 9352,
      "##iring": 9353,
      "dicembre": 9354,
      "##restling": 9355,
      "studierte": 9356,
      "DDR": 9357,
      "Story": 9358,
      "citiz": 9359,
      "1892": 9360,
      "Cer": 9361,
      "Supre": 9362,
      "Tourn": 9363,
      "Übers": 9364,
      "##rations": 9365,
      "insieme": 9366,
      "emb": 9367,
      "statunit": 9368,
      "provides": 9369,
      "Richt": 9370,
      "chiesa": 9371,
      "##erner": 9372,
      "native": 9373,
      "##ighter": 9374,
      "Hamp": 9375,
      "##orsitz": 9376,
      "##laub": 9377,
      "##onz": 9378,
      "1894": 9379,
      "winner": 9380,
      "##uchs": 9381,
      "Jord": 9382,
      "##ièrement": 9383,
      "##yt": 9384,
      "château": 9385,
      "path": 9386,
      "crew": 9387,
      "leaving": 9388,
      "vir": 9389,
      "gauche": 9390,
      "prest": 9391,
      "##irds": 9392,
      "letzten": 9393,
      "Ris": 9394,
      "hui": 9395,
      "britannique": 9396,
      "Prote": 9397,
      "##known": 9398,
      "joueur": 9399,
      "##kre": 9400,
      "##itting": 9401,
      "Senate": 9402,
      "##ingt": 9403,
      "##orph": 9404,
      "DC": 9405,
      "tur": 9406,
      "believed": 9407,
      "##amber": 9408,
      "episodes": 9409,
      "1885": 9410,
      "Québec": 9411,
      "scene": 9412,
      "deliver": 9413,
      "tex": 9414,
      "Ve": 9415,
      "Nu": 9416,
      "droit": 9417,
      "variety": 9418,
      "Offiz": 9419,
      "##oses": 9420,
      "##cript": 9421,
      "Republican": 9422,
      "##GB": 9423,
      "Fem": 9424,
      "membres": 9425,
      "helped": 9426,
      "What": 9427,
      "sechs": 9428,
      "158": 9429,
      "##anzen": 9430,
      "##iato": 9431,
      "##chter": 9432,
      "Howard": 9433,
      "benef": 9434,
      "Allemagne": 9435,
      "Piet": 9436,
      "##abile": 9437,
      "Anderson": 9438,
      "mine": 9439,
      "Sor": 9440,
      "##érique": 9441,
      "Hotel": 9442,
      "già": 9443,
      "society": 9444,
      "reste": 9445,
      "Community": 9446,
      "œuvre": 9447,
      "##allenge": 9448,
      "chaque": 9449,
      "CS": 9450,
      "historique": 9451,
      "##regon": 9452,
      "##irtschafts": 9453,
      "Miller": 9454,
      "##atoire": 9455,
      "destin": 9456,
      "labor": 9457,
      "##atures": 9458,
      "Amt": 9459,
      "donne": 9460,
      "sollte": 9461,
      "Mission": 9462,
      "##zona": 9463,
      "monument": 9464,
      "youn": 9465,
      "earned": 9466,
      "Sitz": 9467,
      "##zzo": 9468,
      "acquired": 9469,
      "Atlantic": 9470,
      "##äss": 9471,
      "##olt": 9472,
      "Jur": 9473,
      "Supp": 9474,
      "01": 9475,
      "response": 9476,
      "offered": 9477,
      "##uty": 9478,
      "diesen": 9479,
      "Area": 9480,
      "quattro": 9481,
      "Indones": 9482,
      "Kilometer": 9483,
      "##äre": 9484,
      "appearances": 9485,
      "##iders": 9486,
      "##agu": 9487,
      "##bez": 9488,
      "##lungen": 9489,
      "Network": 9490,
      "##oda": 9491,
      "156": 9492,
      "Glas": 9493,
      "Madrid": 9494,
      "Ou": 9495,
      "niveau": 9496,
      "##ports": 9497,
      "troops": 9498,
      "ho": 9499,
      "diverse": 9500,
      "août": 9501,
      "Auft": 9502,
      "software": 9503,
      "##ennt": 9504,
      "Dark": 9505,
      "touch": 9506,
      "rice": 9507,
      "Samuel": 9508,
      "Militär": 9509,
      "positive": 9510,
      "astéroï": 9511,
      "décembre": 9512,
      "Nether": 9513,
      "##jourd": 9514,
      "##haf": 9515,
      "compon": 9516,
      "Köln": 9517,
      "Tokyo": 9518,
      "bât": 9519,
      "compar": 9520,
      "Labor": 9521,
      "Despite": 9522,
      "1891": 9523,
      "##emeter": 9524,
      "diam": 9525,
      "##essee": 9526,
      "Hockey": 9527,
      "Point": 9528,
      "Cost": 9529,
      "##amilton": 9530,
      "kg": 9531,
      "belong": 9532,
      "mainly": 9533,
      "individuals": 9534,
      "Burn": 9535,
      "Dres": 9536,
      "rat": 9537,
      "tecn": 9538,
      "Margar": 9539,
      "retour": 9540,
      "travail": 9541,
      "assistant": 9542,
      "Pur": 9543,
      "Anthony": 9544,
      "##erdings": 9545,
      "makes": 9546,
      "det": 9547,
      "allerdings": 9548,
      "vel": 9549,
      "bud": 9550,
      "système": 9551,
      "carried": 9552,
      "exter": 9553,
      "print": 9554,
      "sang": 9555,
      "##avi": 9556,
      "Nev": 9557,
      "pouvoir": 9558,
      "Orient": 9559,
      "poor": 9560,
      "##icine": 9561,
      "Oregon": 9562,
      "##thod": 9563,
      "##nahmen": 9564,
      "études": 9565,
      "chiam": 9566,
      "heraus": 9567,
      "##lection": 9568,
      "##icient": 9569,
      "fatto": 9570,
      "verwend": 9571,
      "période": 9572,
      "##ymnas": 9573,
      "Trin": 9574,
      "gegründet": 9575,
      "Peters": 9576,
      "villages": 9577,
      "##akh": 9578,
      "impact": 9579,
      "dan": 9580,
      "Hermann": 9581,
      "##onders": 9582,
      "siehe": 9583,
      "elimin": 9584,
      "meist": 9585,
      "Preis": 9586,
      "cultural": 9587,
      "##aging": 9588,
      "aprile": 9589,
      "remaining": 9590,
      "Dok": 9591,
      "Douglas": 9592,
      "##chio": 9593,
      "bridge": 9594,
      "##ombe": 9595,
      "influen": 9596,
      "Baden": 9597,
      "tennis": 9598,
      "Alan": 9599,
      "AR": 9600,
      "fille": 9601,
      "nörd": 9602,
      "Kü": 9603,
      "atte": 9604,
      "Last": 9605,
      "focus": 9606,
      "Schriftsteller": 9607,
      "Arizona": 9608,
      "carrière": 9609,
      "Insel": 9610,
      "Bapt": 9611,
      "consists": 9612,
      "welche": 9613,
      "##enbahn": 9614,
      "Version": 9615,
      "##ów": 9616,
      "brief": 9617,
      "##taire": 9618,
      "Linc": 9619,
      "Budd": 9620,
      "agg": 9621,
      "Sold": 9622,
      "##ifications": 9623,
      "modo": 9624,
      "classe": 9625,
      "##ading": 9626,
      "##unte": 9627,
      "Math": 9628,
      "turned": 9629,
      "Studio": 9630,
      "agli": 9631,
      "founder": 9632,
      "done": 9633,
      "championnat": 9634,
      "élect": 9635,
      "##ully": 9636,
      "kurz": 9637,
      "zwe": 9638,
      "Hamilton": 9639,
      "Dopp": 9640,
      "Tennessee": 9641,
      "starting": 9642,
      "ethn": 9643,
      "bor": 9644,
      "ec": 9645,
      "jours": 9646,
      "Ferd": 9647,
      "##king": 9648,
      "però": 9649,
      "assemb": 9650,
      "experience": 9651,
      "##FF": 9652,
[...]
